{"vocab": {"0": "<|eot|>", "1": "\u0000", "2": "\u0001", "3": "\u0002", "4": "\u0003", "5": "\u0004", "6": "\u0005", "7": "\u0006", "8": "\u0007", "9": "\b", "10": "\t", "11": "\n", "12": "\u000b", "13": "\f", "14": "\r", "15": "\u000e", "16": "\u000f", "17": "\u0010", "18": "\u0011", "19": "\u0012", "20": "\u0013", "21": "\u0014", "22": "\u0015", "23": "\u0016", "24": "\u0017", "25": "\u0018", "26": "\u0019", "27": "\u001a", "28": "\u001b", "29": "\u001c", "30": "\u001d", "31": "\u001e", "32": "\u001f", "33": " ", "34": "!", "35": "\"", "36": "#", "37": "$", "38": "%", "39": "&", "40": "'", "41": "(", "42": ")", "43": "*", "44": "+", "45": ",", "46": "-", "47": ".", "48": "/", "49": "0", "50": "1", "51": "2", "52": "3", "53": "4", "54": "5", "55": "6", "56": "7", "57": "8", "58": "9", "59": ":", "60": ";", "61": "<", "62": "=", "63": ">", "64": "?", "65": "@", "66": "A", "67": "B", "68": "C", "69": "D", "70": "E", "71": "F", "72": "G", "73": "H", "74": "I", "75": "J", "76": "K", "77": "L", "78": "M", "79": "N", "80": "O", "81": "P", "82": "Q", "83": "R", "84": "S", "85": "T", "86": "U", "87": "V", "88": "W", "89": "X", "90": "Y", "91": "Z", "92": "[", "93": "\\", "94": "]", "95": "^", "96": "_", "97": "`", "98": "a", "99": "b", "100": "c", "101": "d", "102": "e", "103": "f", "104": "g", "105": "h", "106": "i", "107": "j", "108": "k", "109": "l", "110": "m", "111": "n", "112": "o", "113": "p", "114": "q", "115": "r", "116": "s", "117": "t", "118": "u", "119": "v", "120": "w", "121": "x", "122": "y", "123": "z", "124": "{", "125": "|", "126": "}", "127": "~", "128": "\u007f", "129": "\u0080", "130": "\u0081", "131": "\u0082", "132": "\u0083", "133": "\u0084", "134": "\u0085", "135": "\u0086", "136": "\u0087", "137": "\u0088", "138": "\u0089", "139": "\u008a", "140": "\u008b", "141": "\u008c", "142": "\u008d", "143": "\u008e", "144": "\u008f", "145": "\u0090", "146": "\u0091", "147": "\u0092", "148": "\u0093", "149": "\u0094", "150": "\u0095", "151": "\u0096", "152": "\u0097", "153": "\u0098", "154": "\u0099", "155": "\u009a", "156": "\u009b", "157": "\u009c", "158": "\u009d", "159": "\u009e", "160": "\u009f", "161": "\u00a0", "162": "\u00a1", "163": "\u00a2", "164": "\u00a3", "165": "\u00a4", "166": "\u00a5", "167": "\u00a6", "168": "\u00a7", "169": "\u00a8", "170": "\u00a9", "171": "\u00aa", "172": "\u00ab", "173": "\u00ac", "174": "\u00ad", "175": "\u00ae", "176": "\u00af", "177": "\u00b0", "178": "\u00b1", "179": "\u00b2", "180": "\u00b3", "181": "\u00b4", "182": "\u00b5", "183": "\u00b6", "184": "\u00b7", "185": "\u00b8", "186": "\u00b9", "187": "\u00ba", "188": "\u00bb", "189": "\u00bc", "190": "\u00bd", "191": "\u00be", "192": "\u00bf", "193": "\u00c0", "194": "\u00c1", "195": "\u00c2", "196": "\u00c3", "197": "\u00c4", "198": "\u00c5", "199": "\u00c6", "200": "\u00c7", "201": "\u00c8", "202": "\u00c9", "203": "\u00ca", "204": "\u00cb", "205": "\u00cc", "206": "\u00cd", "207": "\u00ce", "208": "\u00cf", "209": "\u00d0", "210": "\u00d1", "211": "\u00d2", "212": "\u00d3", "213": "\u00d4", "214": "\u00d5", "215": "\u00d6", "216": "\u00d7", "217": "\u00d8", "218": "\u00d9", "219": "\u00da", "220": "\u00db", "221": "\u00dc", "222": "\u00dd", "223": "\u00de", "224": "\u00df", "225": "\u00e0", "226": "\u00e1", "227": "\u00e2", "228": "\u00e3", "229": "\u00e4", "230": "\u00e5", "231": "\u00e6", "232": "\u00e7", "233": "\u00e8", "234": "\u00e9", "235": "\u00ea", "236": "\u00eb", "237": "\u00ec", "238": "\u00ed", "239": "\u00ee", "240": "\u00ef", "241": "\u00f0", "242": "\u00f1", "243": "\u00f2", "244": "\u00f3", "245": "\u00f4", "246": "\u00f5", "247": "\u00f6", "248": "\u00f7", "249": "\u00f8", "250": "\u00f9", "251": "\u00fa", "252": "\u00fb", "253": "\u00fc", "254": "\u00fd", "255": "\u00fe", "256": "\u00ff", "257": "en", "258": "er", "259": "in", "260": " t", "261": "on", "262": "ar", "263": " d", "264": "he", "265": "or", "266": "an", "267": " w", "268": " m", "269": "ron", "270": "es", "271": "rong", "272": " a", "273": " v", "274": " s", "275": "ing", "276": "el", "277": " o", "278": " the", "279": "al", "280": " c", "281": "et", "282": "ij", "283": "it", "284": "at", "285": " b", "286": " de", "287": " N", "288": "ot", "289": " wrong", "290": "is", "291": "ed", "292": " in", "293": " g", "294": "ch", "295": " e", "296": " W", "297": " p", "298": "le", "299": " h", "300": "ly", "301": " to", "302": " he", "303": " Not", "304": " Wrong", "305": "io", "306": "cen", "307": "om", "308": "ie", "309": "ario", "310": "cenario", "311": " en", "312": " z", "313": " k", "314": " S", "315": "ct", "316": " n", "317": "ord", "318": "and", "319": "st", "320": " do", "321": " f", "322": " van", "323": " of", "324": " een", "325": " r", "326": "aar", "327": "oral", "328": " |", "329": " moral", "330": " Scenario", "331": " st", "332": " 2", "333": " D", "334": " het", "335": " j", "336": "ig", "337": "ur", "338": "ir", "339": "ou", "340": "oor", "341": " ma", "342": " l", "343": "ent", "344": "id", "345": " te", "346": " u", "347": " ch", "348": "end", "349": "se", "350": " op", "351": " ge", "352": "ic", "353": " on", "354": " 1", "355": "ra", "356": "wer", "357": "il", "358": "ers", "359": "ich", "360": " their", "361": "ro", "362": " A", "363": " is", "364": "am", "365": "act", "366": " je", "367": "ijk", "368": "ol", "369": " voor", "370": " al", "371": "ns", "372": " ver", "373": "ijn", "374": "ek", "375": "ag", "376": "der", "377": "ver", "378": "cc", "379": " I", "380": "eg", "381": " main", "382": "un", "383": " char", "384": "lear", "385": "esp", "386": " Y", "387": " No", "388": "'s", "389": " clear", "390": " does", "391": "ite", "392": "acter", "393": " character", "394": " morally", "395": " clearly", "396": "nswer", "397": "ik", "398": "Answer", "399": " Yes", "400": "as", "401": "ard", "402": " met", "403": "ri", "404": "eer", "405": "est", "406": " aan", "407": "ording", "408": " U", "409": " wh", "410": "ccording", "411": "wo", "412": "ak", "413": "us", "414": "ion", "415": " 20", "416": "cht", "417": " som", "418": "em", "419": " as", "420": "eth", "421": "ary", "422": " om", "423": " ord", "424": " stand", "425": "ad", "426": "ards", "427": "ok", "428": " dat", "429": "For", "430": " two", "431": " US", "432": "inary", "433": " which", "434": " scenario", "435": "re", "436": " standards", "437": "ething", "438": " something", "439": " according", "440": " these", "441": " scenarios", "442": " ordinary", "443": "ul", "444": "iet", "445": "og", "446": " B", "447": " 202", "448": "den", "449": " zijn", "450": "im", "451": " be", "452": "de", "453": "ft", "454": "ru", "455": "ay", "456": "gen", "457": "espite", "458": "ze", "459": "op", "460": "ken", "461": " re", "462": " H", "463": " and", "464": "eel", "465": "ect", "466": "elijk", "467": "ant", "468": "ven", "469": " Despite", "470": " die", "471": " C", "472": " er", "473": "ess", "474": " com", "475": "ge", "476": "ut", "477": " they", "478": "art", "479": " sp", "480": "ist", "481": "aat", "482": " uit", "483": " M", "484": "riend", "485": " le", "486": " bij", "487": " her", "488": " con", "489": " word", "490": " we", "491": " niet", "492": "rij", "493": "eren", "494": "ste", "495": "ow", "496": "ap", "497": " over", "498": "ve", "499": " for", "500": "ang", "501": "ort", "502": " E", "503": " his", "504": "ith", "505": " T", "506": " friend", "507": " mo", "508": " J", "509": " pro", "510": " ook", "511": "ies", "512": "out", "513": "nen", "514": " kun", "515": "ere", "516": " De", "517": " (", "518": "aal", "519": "day", "520": "atie", "521": "ende", "522": " with", "523": " zo", "524": "sen", "525": "os", "526": " V", "527": "ingen", "528": "ien", "529": " als", "530": " today", "531": "ier", "532": "ter", "533": " wer", "534": "mer", "535": " ik", "536": "aan", "537": "te", "538": " waar", "539": "ast", "540": " me", "541": " act", "542": " ex", "543": "ac", "544": "ation", "545": " O", "546": " heb", "547": "ten", "548": " comm", "549": " my", "550": "eld", "551": "ele", "552": "oe", "553": " In", "554": "od", "555": "oed", "556": "uur", "557": "len", "558": " kan", "559": " door", "560": "ke", "561": " dan", "562": "pl", "563": "ind", "564": " ne", "565": "ical", "566": "ige", "567": "elen", "568": "ied", "569": " wat", "570": "yp", "571": "ouw", "572": "rom", "573": "heid", "574": "we", "575": " val", "576": " onder", "577": "me", "578": " geb", "579": "ec", "580": " naar", "581": " pers", "582": "isc", "583": "eft", "584": " maar", "585": "ues", "586": " P", "587": " G", "588": "um", "589": "elf", "590": "ab", "591": " af", "592": "ijd", "593": "oc", "594": " commit", "595": " deze", "596": " sch", "597": "pen", "598": " typ", "599": "ce", "600": " Amer", "601": "ip", "602": " worden", "603": " pl", "604": " part", "605": " it", "606": "orm", "607": "igh", "608": " kn", "609": " at", "610": "ial", "611": "ving", "612": "ican", "613": "lijk", "614": " values", "615": "ner", "616": " them", "617": "icht", "618": "ill", "619": " resp", "620": " American", "621": " typical", "622": " ont", "623": "ine", "624": " Z", "625": "uring", "626": " ab", "627": "je", "628": " L", "629": " was", "630": " wel", "631": "sch", "632": " an", "633": " ze", "634": "owing", "635": " Het", "636": "ate", "637": " meer", "638": " vol", "639": "\u00c3\u00ab", "640": "ep", "641": "ho", "642": " el", "643": "uit", "644": " heeft", "645": " alle", "646": " tot", "647": "org", "648": "sp", "649": "iv", "650": " R", "651": " respect", "652": " person", "653": "ff", "654": " wordt", "655": " K", "656": " bet", "657": "De", "658": " dit", "659": "ruik", "660": "vo", "661": "kt", "662": " bel", "663": " knowing", "664": "af", "665": "ieu", "666": "ben", "667": " un", "668": " nog", "669": " vo", "670": "ork", "671": "ful", "672": "ond", "673": " bl", "674": "ings", "675": "aak", "676": " kunnen", "677": "ely", "678": " goed", "679": " th", "680": " dec", "681": "acht", "682": " pr", "683": "bl", "684": " hebben", "685": " best", "686": "oek", "687": "ell", "688": "esch", "689": "th", "690": " from", "691": "lex", "692": " su", "693": "ost", "694": "if", "695": "\u00e2\u0080", "696": "per", "697": " us", "698": "\u00c3\u00a9", "699": " gr", "700": " int", "701": " par", "702": "als", "703": "ide", "704": "ain", "705": "oud", "706": "are", "707": "omen", "708": "pp", "709": " about", "710": "ust", "711": " kl", "712": " not", "713": " hel", "714": "igen", "715": "onder", "716": "all", "717": "ud", "718": "ische", "719": "zen", "720": "king", "721": "ber", "722": " wil", "723": " gebruik", "724": "iteit", "725": "qu", "726": " sec", "727": " gro", "728": " '", "729": " cont", "730": "ity", "731": "eten", "732": "ass", "733": " ad", "734": "ia", "735": " man", "736": "aten", "737": " dis", "738": " veel", "739": "one", "740": "ild", "741": " Alex", "742": " cho", "743": "voor", "744": "oon", "745": " bed", "746": " per", "747": "ret", "748": " F", "749": " daar", "750": "ug", "751": " vers", "752": "pt", "753": "ren", "754": " sh", "755": "ive", "756": "amen", "757": "oh", "758": "ank", "759": "du", "760": " ref", "761": " 2024", "762": "lo", "763": " partner", "764": "racht", "765": "fter", "766": " ter", "767": "00", "768": "sh", "769": "ief", "770": "anc", "771": "eken", "772": " all", "773": "olle", "774": "arm", "775": " hun", "776": " na", "777": "i\u00c3\u00ab", "778": " ho", "779": "ens", "780": "uis", "781": "ann", "782": " 2022", "783": "be", "784": "ment", "785": "elijke", "786": " inter", "787": " onze", "788": "my", "789": "jes", "790": "els", "791": "bor", "792": "aren", "793": " 2020", "794": " hoe", "795": "oun", "796": "ale", "797": " maken", "798": "form", "799": " 2023", "800": " secret", "801": "of", "802": "ering", "803": " sl", "804": " child", "805": " 2021", "806": " nieu", "807": "ress", "808": " gen", "809": "stead", "810": "iek", "811": "age", "812": "land", "813": " uses", "814": " sn", "815": " im", "816": "iz", "817": " werk", "818": "inder", "819": " Joh", "820": "ert", "821": " off", "822": " instead", "823": " bo", "824": " beg", "825": " uw", "826": "According", "827": "uk", "828": " kunt", "829": "raag", "830": " ons", "831": "innen", "832": " cl", "833": "fully", "834": "who", "835": " geen", "836": "wij", "837": "dat", "838": "ure", "839": " John", "840": "av", "841": " Al", "842": " gez", "843": "ional", "844": " eer", "845": "ue", "846": " zelf", "847": " med", "848": " pri", "849": " mijn", "850": "baar", "851": " reg", "852": " zich", "853": " jaar", "854": "ach", "855": "By", "856": " men", "857": " beh", "858": "Het", "859": " andere", "860": "ijden", "861": " hier", "862": "ighbor", "863": " neighbor", "864": "eerd", "865": "ated", "866": "ult", "867": "ily", "868": " feel", "869": "uid", "870": "eden", "871": " rel", "872": " mog", "873": " She", "874": " ben", "875": "aam", "876": "ject", "877": " hij", "878": "line", "879": " res", "880": "ater", "881": " wij", "882": "rijk", "883": " After", "884": " without", "885": " nu", "886": " fam", "887": " dag", "888": "her", "889": "ice", "890": "ign", "891": "tr", "892": "vol", "893": "erg", "894": " versch", "895": " tra", "896": " \"", "897": "ore", "898": "ck", "899": "emen", "900": "ight", "901": " work", "902": "ame", "903": " kle", "904": "eder", "905": "air", "906": "aard", "907": "ob", "908": " parent", "909": " tr", "910": " colle", "911": " em", "912": " gaan", "913": " hand", "914": "ack", "915": " Dit", "916": "iss", "917": "eling", "918": "app", "919": "eu", "920": " belang", "921": " tijd", "922": " secretly", "923": " acc", "924": "uren", "925": " weer", "926": " gel", "927": "idd", "928": "ile", "929": " 3", "930": "elt", "931": " moet", "932": "che", "933": " aut", "934": "alen", "935": "zoek", "936": "een", "937": " she", "938": " disc", "939": "stand", "940": " no", "941": " lo", "942": " samen", "943": "egen", "944": "erk", "945": "au", "946": " se", "947": " gem", "948": "erd", "949": " inv", "950": " echt", "951": "bij", "952": " chose", "953": " decid", "954": "werk", "955": "ouden", "956": " zoals", "957": " eigen", "958": "eeld", "959": "aving", "960": "ently", "961": "tra", "962": " During", "963": " Een", "964": "ance", "965": " bied", "966": "duct", "967": "ellen", "968": "ger", "969": "ink", "970": " haar", "971": "atuur", "972": "ately", "973": " cons", "974": " ste", "975": "ool", "976": " prom", "977": "open", "978": "ement", "979": "our", "980": " rep", "981": " ged", "982": "aties", "983": "tijd", "984": "ans", "985": " nieuwe", "986": "ussen", "987": "aring", "988": " En", "989": " comp", "990": "led", "991": "ma", "992": "erv", "993": " alleen", "994": " The", "995": " \u00e2\u0080", "996": " verb", "997": " had", "998": "over", "999": " Je", "1000": " zorg", "1001": " cas", "1002": " respectfully", "1003": " mogelijk", "1004": " gaat", "1005": " fin", "1006": "rug", "1007": "zelf", "1008": " ens", "1009": " besch", "1010": " kw", "1011": "ship", "1012": "ino", "1013": " family", "1014": "val", "1015": "int", "1016": " Ik", "1017": " krij", "1018": "ef", "1019": "isch", "1020": " ar", "1021": "aus", "1022": "ined", "1023": " tegen", "1024": " kom", "1025": " dus", "1026": "In", "1027": " ro", "1028": " di", "1029": "ragen", "1030": "ne", "1031": "kom", "1032": " online", "1033": " prof", "1034": " doen", "1035": " ru", "1036": "oen", "1037": " app", "1038": "wn", "1039": " help", "1040": " but", "1041": " car", "1042": "heden", "1043": " twe", "1044": " min", "1045": " mensen", "1046": "ld", "1047": "illende", "1048": "rijf", "1049": "rond", "1050": " zal", "1051": " blij", "1052": "ong", "1053": " hom", "1054": "dag", "1055": "ederland", "1056": "iding", "1057": "ikk", "1058": "ieke", "1059": " up", "1060": " out", "1061": "beeld", "1062": " belangrijk", "1063": "anger", "1064": "door", "1065": "erm", "1066": " grot", "1067": " pu", "1068": " gew", "1069": "oss", "1070": " dr", "1071": " plaat", "1072": "geb", "1073": "odig", "1074": "cl", "1075": " verschillende", "1076": " binnen", "1077": "ib", "1078": "gel", "1079": "fort", "1080": "'t", "1081": "urs", "1082": " pol", "1083": "ont", "1084": " staat", "1085": " jouw", "1086": " fe", "1087": "ouwen", "1088": " str", "1089": " even", "1090": "ting", "1091": " ple", "1092": "na", "1093": "van", "1094": "oren", "1095": " elk", "1096": " att", "1097": "aag", "1098": "nem", "1099": " maak", "1100": " inform", "1101": " pre", "1102": "lijke", "1103": "gens", "1104": " during", "1105": " altijd", "1106": "zet", "1107": "ick", "1108": "maal", "1109": "schap", "1110": "inden", "1111": " verk", "1112": "uist", "1113": "reg", "1114": "ub", "1115": "ime", "1116": " imp", "1117": " heel", "1118": "ating", "1119": "ness", "1120": "iets", "1121": "eil", "1122": " snel", "1123": "vent", "1124": " being", "1125": " product", "1126": " leven", "1127": "uiten", "1128": "cent", "1129": " Deze", "1130": "sl", "1131": " Daar", "1132": "gt", "1133": " y", "1134": "esl", "1135": "aakt", "1136": "oord", "1137": " Wh", "1138": " ontw", "1139": " del", "1140": " caus", "1141": " decided", "1142": " toe", "1143": " mee", "1144": " Nederland", "1145": "unt", "1146": "ood", "1147": " We", "1148": "eds", "1149": " fun", "1150": "ijdens", "1151": " br", "1152": " 5", "1153": "oy", "1154": "ous", "1155": " werd", "1156": " cr", "1157": "men", "1158": " open", "1159": "amp", "1160": "\u00c3\u00a9n", "1161": " publ", "1162": " adv", "1163": " financ", "1164": " team", "1165": "ace", "1166": "com", "1167": " new", "1168": " eerste", "1169": "Een", "1170": " \u00e2\u0080\u0093", "1171": " mar", "1172": " soc", "1173": " refus", "1174": " causing", "1175": "ker", "1176": "eker", "1177": "nt", "1178": " loc", "1179": "ound", "1180": " meest", "1181": "ident", "1182": "ionally", "1183": " mom", "1184": "vers", "1185": "anden", "1186": "oop", "1187": " despite", "1188": "ument", "1189": " party", "1190": " moo", "1191": " intent", "1192": " Dat", "1193": "chter", "1194": "aad", "1195": " project", "1196": "organ", "1197": " him", "1198": " hoog", "1199": " lang", "1200": "woord", "1201": " komen", "1202": "weg", "1203": " natuur", "1204": " 4", "1205": " hele", "1206": "rek", "1207": "bs", "1208": "amer", "1209": "eerde", "1210": " zien", "1211": " co", "1212": " St", "1213": "way", "1214": " nodig", "1215": " vrij", "1216": " erv", "1217": " zou", "1218": " verh", "1219": " refra", "1220": "anneer", "1221": " relation", "1222": " ind", "1223": "ave", "1224": "aken", "1225": "ull", "1226": " relationship", "1227": "pro", "1228": "Al", "1229": " spec", "1230": " friends", "1231": " ing", "1232": " bus", "1233": "eert", "1234": "oug", "1235": "ss", "1236": "itie", "1237": "ions", "1238": " Maar", "1239": " priv", "1240": " feeling", "1241": "ruk", "1242": "tal", "1243": "ces", "1244": " Als", "1245": " eff", "1246": " terug", "1247": "ual", "1248": " inst", "1249": " tussen", "1250": "ough", "1251": " laat", "1252": "ekend", "1253": " water", "1254": " prob", "1255": " moment", "1256": " casino", "1257": " stud", "1258": " keu", "1259": " verl", "1260": " bre", "1261": " To", "1262": " den", "1263": "kelijk", "1264": "orgen", "1265": " vind", "1266": " huis", "1267": " cow", "1268": " He", "1269": " geld", "1270": " exp", "1271": " oth", "1272": " sm", "1273": "ning", "1274": "ys", "1275": " cowork", "1276": "igheid", "1277": "onden", "1278": "anten", "1279": ").", "1280": " grote", "1281": " colleag", "1282": " zit", "1283": "oit", "1284": "ake", "1285": "aart", "1286": " intentionally", "1287": " Met", "1288": "iden", "1289": " social", "1290": " personal", "1291": " komt", "1292": "ail", "1293": " avo", "1294": " groot", "1295": "sten", "1296": "ities", "1297": " twee", "1298": " bev", "1299": " respecting", "1300": " gek", "1301": "rugg", "1302": " by", "1303": "les", "1304": "iber", "1305": " 201", "1306": "ets", "1307": "ov", "1308": "voorbeeld", "1309": " ensuring", "1310": " strugg", "1311": " ontwikk", "1312": " Op", "1313": " or", "1314": " bent", "1315": " qu", "1316": "old", "1317": " bas", "1318": " ied", "1319": "inderen", "1320": "aand", "1321": " laten", "1322": "zien", "1323": " mis", "1324": " ap", "1325": "rust", "1326": "ise", "1327": "fect", "1328": "bare", "1329": " hebt", "1330": "organis", "1331": "med", "1332": "ah", "1333": "ath", "1334": " -", "1335": "bo", "1336": "ase", "1337": "ouse", "1338": " harm", "1339": " via", "1340": " zonder", "1341": " bedrijf", "1342": " art", "1343": " school", "1344": " ken", "1345": "chn", "1346": " decl", "1347": "mat", "1348": "elling", "1349": " home", "1350": " On", "1351": " mij", "1352": " gesch", "1353": " Ook", "1354": " profess", "1355": "osten", "1356": "ins", "1357": " deel", "1358": "iew", "1359": " wereld", "1360": " sc", "1361": " vinden", "1362": " rest", "1363": " job", "1364": "houd", "1365": " net", "1366": "ullen", "1367": "leg", "1368": " werken", "1369": " vaak", "1370": " verz", "1371": "ific", "1372": "ids", "1373": " spel", "1374": "ons", "1375": " ass", "1376": " contact", "1377": " \u00c3\u00a9", "1378": " supp", "1379": " omdat", "1380": " Mar", "1381": "gest", "1382": " ruim", "1383": " Er", "1384": " public", "1385": " verm", "1386": " che", "1387": " ag", "1388": "oten", "1389": "ijken", "1390": " moeten", "1391": " conf", "1392": " duur", "1393": " any", "1394": "eting", "1395": "aliteit", "1396": " deliber", "1397": " deliberately", "1398": " maakt", "1399": " juist", "1400": "zaam", "1401": " zoek", "1402": " Zo", "1403": " refused", "1404": "geving", "1405": "ade", "1406": " weg", "1407": " parents", "1408": " tijdens", "1409": " coworker", "1410": " verg", "1411": " Sam", "1412": " pat", "1413": "iel", "1414": " expl", "1415": "elde", "1416": " iets", "1417": " goede", "1418": "itu", "1419": "ious", "1420": "Ik", "1421": " dist", "1422": " park", "1423": " gra", "1424": "tain", "1425": "able", "1426": " zw", "1427": " uur", "1428": "irect", "1429": " geven", "1430": "pon", "1431": " Sp", "1432": " weten", "1433": " hon", "1434": "other", "1435": "mate", "1436": "assen", "1437": " elkaar", "1438": " Ze", "1439": " fl", "1440": "ibl", "1441": " lu", "1442": "isten", "1443": "ift", "1444": "ould", "1445": " won", "1446": " Hier", "1447": " \u00c3\u00a9\u00c3\u00a9n", "1448": " bijvoorbeeld", "1449": " ret", "1450": " opt", "1451": "rijs", "1452": " verd", "1453": "..", "1454": " own", "1455": "ling", "1456": " kind", "1457": " extra", "1458": " sle", "1459": " jij", "1460": " energ", "1461": " biedt", "1462": "olog", "1463": "row", "1464": " ger", "1465": " beste", "1466": " sy", "1467": " cre", "1468": " want", "1469": " financial", "1470": "nis", "1471": " rem", "1472": " alles", "1473": " into", "1474": " persoon", "1475": "ife", "1476": "gra", "1477": " bieden", "1478": " verder", "1479": "ctie", "1480": " ide", "1481": " manier", "1482": " colleague", "1483": " voord", "1484": "ikt", "1485": " vis", "1486": " plaats", "1487": " aantal", "1488": " Bij", "1489": " 19", "1490": " verw", "1491": " toeg", "1492": " Voor", "1493": "aling", "1494": "mand", "1495": "very", "1496": " play", "1497": "alth", "1498": " staan", "1499": " offer", "1500": " comfort", "1501": "eur", "1502": "ared", "1503": " time", "1504": "iaal", "1505": " des", "1506": " zij", "1507": " steeds", "1508": " waardoor", "1509": "agen", "1510": " vert", "1511": " commun", "1512": "zicht", "1513": " Van", "1514": "uss", "1515": " ins", "1516": "ente", "1517": " pra", "1518": " refrained", "1519": " get", "1520": "rouw", "1521": "ks", "1522": " elke", "1523": " win", "1524": "ish", "1525": "ichting", "1526": "etten", "1527": " ko", "1528": "veel", "1529": " activ", "1530": " who", "1531": " toch", "1532": " bew", "1533": " start", "1534": "komen", "1535": " ph", "1536": "gem", "1537": "ames", "1538": " pres", "1539": "midd", "1540": "ari", "1541": " webs", "1542": " sibl", "1543": " report", "1544": " wit", "1545": " saf", "1546": "ager", "1547": " ber", "1548": ".\"", "1549": " gev", "1550": "ry", "1551": "ange", "1552": "ijf", "1553": " ris", "1554": "urn", "1555": " veil", "1556": " pot", "1557": " 6", "1558": " Ch", "1559": "uin", "1560": "ept", "1561": " call", "1562": " aand", "1563": " buiten", "1564": "aden", "1565": " zorgen", "1566": " informatie", "1567": " zodat", "1568": "itt", "1569": " sport", "1570": "opt", "1571": " don", "1572": "less", "1573": "ieren", "1574": "ede", "1575": "ee", "1576": " lig", "1577": " support", "1578": " achter", "1579": " Ver", "1580": " vast", "1581": " minder", "1582": "ire", "1583": "iezen", "1584": " having", "1585": "ally", "1586": " under", "1587": "ember", "1588": "ear", "1589": " bep", "1590": " While", "1591": "iging", "1592": "\u00c3\u00af", "1593": "arding", "1594": " rec", "1595": " hog", "1596": "cer", "1597": "acy", "1598": "ines", "1599": " krijgen", "1600": " feelings", "1601": " class", "1602": "ieve", "1603": " zeker", "1604": " willen", "1605": " gemaakt", "1606": " zeg", "1607": " hem", "1608": "oort", "1609": " organis", "1610": "bed", "1611": "rag", "1612": "even", "1613": " vorm", "1614": " recht", "1615": " prior", "1616": "its", "1617": " spelen", "1618": " Sar", "1619": "\u00e2\u0082", "1620": "ina", "1621": "Wat", "1622": " enk", "1623": "geven", "1624": " boek", "1625": "hed", "1626": "achten", "1627": " wed", "1628": "ition", "1629": "atis", "1630": "\u00e2\u0082\u00ac", "1631": "ofd", "1632": " jaren", "1633": " kinderen", "1634": "antwoord", "1635": " vooral", "1636": " polit", "1637": " helpen", "1638": " gesp", "1639": " vak", "1640": " proble", "1641": " nieuw", "1642": " land", "1643": " direct", "1644": "oney", "1645": "min", "1646": "alis", "1647": " gl", "1648": "plaat", "1649": " that", "1650": " graag", "1651": "res", "1652": " vl", "1653": " nemen", "1654": " Upon", "1655": "rijven", "1656": " eens", "1657": " dien", "1658": " iedere", "1659": "view", "1660": " vragen", "1661": " choos", "1662": "dracht", "1663": " keer", "1664": " ervoor", "1665": "uw", "1666": " volg", "1667": " opl", "1668": " const", "1669": " tre", "1670": " bef", "1671": " avoid", "1672": "gev", "1673": " lich", "1674": "ocht", "1675": " every", "1676": "ader", "1677": "Als", "1678": " money", "1679": " children", "1680": " bez", "1681": "waar", "1682": " stap", "1683": " bu", "1684": "ieuw", "1685": "antie", "1686": " room", "1687": " onderzoek", "1688": " lever", "1689": " houden", "1690": "izing", "1691": " erg", "1692": " maintain", "1693": "do", "1694": " geh", "1695": " Sarah", "1696": "oto", "1697": " la", "1698": "ekt", "1699": " website", "1700": "ction", "1701": " bere", "1702": "bin", "1703": "mee", "1704": " kort", "1705": " bren", "1706": " week", "1707": " past", "1708": " contin", "1709": " mag", "1710": " zeer", "1711": " pay", "1712": " attend", "1713": "owel", "1714": "ked", "1715": " perfect", "1716": " geme", "1717": " elder", "1718": " 10", "1719": " gebruiken", "1720": " elderly", "1721": " serv", "1722": "ors", "1723": "naast", "1724": "ging", "1725": " gebruikt", "1726": " am", "1727": "ogen", "1728": "20", "1729": "eter", "1730": "ather", "1731": " wanneer", "1732": "i\u00c3\u00abn", "1733": " before", "1734": " sign", "1735": " sibling", "1736": "ijl", "1737": "con", "1738": "ations", "1739": " leaving", "1740": "red", "1741": "oup", "1742": "ister", "1743": "aur", "1744": " dog", "1745": " weet", "1746": " vraag", "1747": " gest", "1748": "man", "1749": "ieten", "1750": " plek", "1751": " invit", "1752": "inner", "1753": "enten", "1754": " sk", "1755": "ged", "1756": "dere", "1757": " energie", "1758": "ising", "1759": " beter", "1760": "wel", "1761": "br", "1762": " fil", "1763": "clus", "1764": "ateg", "1765": "aas", "1766": "Op", "1767": " shared", "1768": " maat", "1769": " Le", "1770": " priorit", "1771": " disreg", "1772": "ster", "1773": "aged", "1774": " Dan", "1775": "pak", "1776": "ots", "1777": "entie", "1778": " welke", "1779": " geval", "1780": " sche", "1781": "elingen", "1782": " mu", "1783": "ced", "1784": "ages", "1785": " mil", "1786": " end", "1787": "pect", "1788": " lied", "1789": "zonder", "1790": " food", "1791": " dri", "1792": "woon", "1793": " basis", "1794": " leg", "1795": " huid", "1796": " disregarding", "1797": " rond", "1798": " ign", "1799": " honest", "1800": " day", "1801": "und", "1802": "up", "1803": " jou", "1804": " beschik", "1805": " An", "1806": "igd", "1807": "ane", "1808": " juiste", "1809": " effect", "1810": " Door", "1811": "dek", "1812": "co", "1813": " zelfs", "1814": " so", "1815": " fre", "1816": " besl", "1817": "ulp", "1818": "get", "1819": "rol", "1820": "ized", "1821": " ke", "1822": " event", "1823": " break", "1824": " Wij", "1825": " 7", "1826": " declined", "1827": " after", "1828": "aald", "1829": " gevo", "1830": "ts", "1831": "rip", "1832": "oog", "1833": " spre", "1834": " speel", "1835": " neg", "1836": " aanb", "1837": " privacy", "1838": " did", "1839": " Om", "1840": " verand", "1841": " groe", "1842": " game", "1843": "sel", "1844": "oeg", "1845": "iness", "1846": "aande", "1847": " when", "1848": " tem", "1849": " nam", "1850": " Hij", "1851": "ett", "1852": "eb", "1853": " zullen", "1854": " natuurlijk", "1855": "ffen", "1856": " wilt", "1857": " health", "1858": "oo", "1859": "erecht", "1860": " others", "1861": " kwaliteit", "1862": "medi", "1863": "avor", "1864": " zon", "1865": "gram", "1866": " pe", "1867": " notic", "1868": "komst", "1869": "gro", "1870": " ten", "1871": "opp", "1872": "ichten", "1873": "aire", "1874": " express", "1875": "vang", "1876": "miss", "1877": " stra", "1878": " mater", "1879": "ark", "1880": " meeting", "1881": " auto", "1882": "ijnen", "1883": " immedi", "1884": " midd", "1885": " last", "1886": " arg", "1887": " techn", "1888": " dro", "1889": " vide", "1890": " sol", "1891": " bek", "1892": "\u00c3\u00abn", "1893": " allemaal", "1894": "wijl", "1895": "On", "1896": " pos", "1897": " zorgt", "1898": "atieve", "1899": " pass", "1900": " hoofd", "1901": " favor", "1902": "iteiten", "1903": "ient", "1904": " blijven", "1905": "ruct", "1906": "oot", "1907": " stuk", "1908": " der", "1909": "zelfde", "1910": "ips", "1911": " zowel", "1912": " ervaring", "1913": " waren", "1914": " geeft", "1915": "ploy", "1916": " ou", "1917": "ential", "1918": "unten", "1919": "Voor", "1920": " ruimte", "1921": " doel", "1922": "EN", "1923": " warm", "1924": "urt", "1925": "recht", "1926": " succ", "1927": " gegeven", "1928": " stad", "1929": " immediately", "1930": "net", "1931": "ax", "1932": " while", "1933": " drie", "1934": " \u00e2\u0082\u00ac", "1935": "werking", "1936": " mooie", "1937": " invest", "1938": " kleine", "1939": "voud", "1940": "rok", "1941": "rit", "1942": " uitst", "1943": " sto", "1944": " prot", "1945": "spra", "1946": "bel", "1947": " media", "1948": " ignor", "1949": " 8", "1950": "isted", "1951": "egd", "1952": "cour", "1953": " dra", "1954": " volled", "1955": "ieden", "1956": " pracht", "1957": "ekening", "1958": "aim", "1959": " vriend", "1960": "oep", "1961": " kon", "1962": " kiezen", "1963": " bezoek", "1964": "iemand", "1965": "Hoe", "1966": " situ", "1967": " houd", "1968": " promot", "1969": " local", "1970": "\u00e2\u0080\u00a6", "1971": " promising", "1972": " compl", "1973": "We", "1974": "St", "1975": " its", "1976": " accident", "1977": " fit", "1978": " Of", "1979": "i\u00c3\u00able", "1980": " werkt", "1981": " teach", "1982": " gewoon", "1983": " producten", "1984": " didn", "1985": " rust", "1986": " let", "1987": " duid", "1988": "zij", "1989": "vl", "1990": " norm", "1991": " leuk", "1992": " With", "1993": "steem", "1994": "atief", "1995": "ph", "1996": "ining", "1997": "ui", "1998": "ading", "1999": " inf", "2000": " employ", "2001": "pr", "2002": "aut", "2003": "akken", "2004": " waarbij", "2005": " They", "2006": " &", "2007": " blijft", "2008": " prov", "2009": " prijs", "2010": " pop", "2011": " kosten", "2012": "rijd", "2013": "omp", "2014": " result", "2015": " kennis", "2016": " kant", "2017": " eind", "2018": " klanten", "2019": " super", "2020": " left", "2021": " house", "2022": " emot", "2023": " care", "2024": "reven", "2025": "eleid", "2026": "ankelijk", "2027": "Je", "2028": " our", "2029": " boven", "2030": " thuis", "2031": " exper", "2032": " av", "2033": "ures", "2034": " onderste", "2035": " enkele", "2036": " anders", "2037": " Without", "2038": "hand", "2039": " mot", "2040": " student", "2041": " rol", "2042": " echter", "2043": "nemers", "2044": " ser", "2045": " regel", "2046": " iedereen", "2047": " gently", "2048": " cent", "2049": " Na", "2050": "\u00e2\u0098", "2051": "ante", "2052": " vanaf", "2053": " vand", "2054": " mede", "2055": " krijgt", "2056": " combin", "2057": "ying", "2058": "ER", "2059": "sy", "2060": "etje", "2061": "att", "2062": "ict", "2063": " bro", "2064": " Hoe", "2065": "leiding", "2066": "ha", "2067": "geg", "2068": " laatste", "2069": " argument", "2070": " volgende", "2071": " discuss", "2072": " lek", "2073": " behand", "2074": " witness", "2075": " Wat", "2076": " cal", "2077": "friend", "2078": " oploss", "2079": " kijken", "2080": " toen", "2081": "omst", "2082": "az", "2083": "Bij", "2084": "'.", "2085": " leer", "2086": "omer", "2087": "gramma", "2088": "cess", "2089": " lichaam", "2090": "uld", "2091": "i\u00c3\u00abnt", "2092": " cor", "2093": "uele", "2094": "ike", "2095": "ijkt", "2096": "aurant", "2097": " gemak", "2098": " special", "2099": "ways", "2100": " present", "2101": " communic", "2102": " bekend", "2103": "ront", "2104": " oud", "2105": " bab", "2106": " ander", "2107": "olen", "2108": "inds", "2109": " professional", "2110": " claim", "2111": " video", "2112": " gratis", "2113": " gezond", "2114": "igheden", "2115": " install", "2116": "ket", "2117": "any", "2118": " paar", "2119": "room", "2120": " dagen", "2121": "ator", "2122": "),", "2123": " gok", "2124": "ves", "2125": "kl", "2126": " keuze", "2127": " dinner", "2128": " Bel", "2129": " waarin", "2130": "urop", "2131": "hor", "2132": " opdracht", "2133": " struggles", "2134": "urg", "2135": "mly", "2136": " verbet", "2137": " rom", "2138": " hard", "2139": "ety", "2140": " need", "2141": " kracht", "2142": "vangen", "2143": " test", "2144": " namelijk", "2145": " mak", "2146": " due", "2147": "ates", "2148": " kans", "2149": "ount", "2150": "ikel", "2151": " helemaal", "2152": " besp", "2153": "werp", "2154": "hel", "2155": " encour", "2156": " decides", "2157": "iol", "2158": " woon", "2159": " eenvoud", "2160": " druk", "2161": "schien", "2162": "elden", "2163": " well", "2164": " foto", "2165": "ckless", "2166": " voed", "2167": " reckless", "2168": " opn", "2169": " gevoel", "2170": " Be", "2171": " potential", "2172": " bal", "2173": " 9", "2174": "rum", "2175": " genieten", "2176": " omgeving", "2177": "istently", "2178": " 0", "2179": "rouwen", "2180": " later", "2181": " hart", "2182": " always", "2183": "volle", "2184": "ple", "2185": " vertr", "2186": " constant", "2187": " brengen", "2188": "verse", "2189": "matig", "2190": "inding", "2191": "000", "2192": " vindt", "2193": " vier", "2194": " long", "2195": "oem", "2196": " toek", "2197": " sex", "2198": " prakt", "2199": " plan", "2200": "onen", "2201": " Sch", "2202": "bal", "2203": "nemer", "2204": "iger", "2205": " still", "2206": " some", "2207": " eerst", "2208": "ior", "2209": " were", "2210": " other", "2211": "ziek", "2212": "ending", "2213": " publicly", "2214": " Daarnaast", "2215": " waarde", "2216": " Fr", "2217": "ivers", "2218": "hes", "2219": " safety", "2220": "\u00e2\u0098\u0086", "2221": "lect", "2222": " vanuit", "2223": "waard", "2224": "ility", "2225": "ian", "2226": "euw", "2227": " lief", "2228": "ugh", "2229": "schapp", "2230": " ligt", "2231": " fir", "2232": "deren", "2233": " restaurant", "2234": " cru", "2235": "wez", "2236": "iment", "2237": " keuken", "2238": "ware", "2239": "unch", "2240": "abel", "2241": " Pro", "2242": "ush", "2243": "cy", "2244": "anning", "2245": " tele", "2246": " nooit", "2247": " los", "2248": " heer", "2249": " group", "2250": "stelling", "2251": "ptly", "2252": " mooi", "2253": " wand", "2254": " rece", "2255": " leren", "2256": " klant", "2257": " grond", "2258": " discover", "2259": "schappen", "2260": " tal", "2261": " night", "2262": " ment", "2263": "imaal", "2264": " terwijl", "2265": " away", "2266": " toekomst", "2267": " mon", "2268": "werken", "2269": "volgens", "2270": "ved", "2271": "rie", "2272": "iving", "2273": " pet", "2274": " mod", "2275": " fijn", "2276": " top", "2277": " Am", "2278": " ill", "2279": "ose", "2280": " popul", "2281": " kleur", "2282": " Europ", "2283": "ris", "2284": "emt", "2285": " manager", "2286": " woning", "2287": " store", "2288": " slecht", "2289": " post", "2290": "voer", "2291": " could", "2292": "endien", "2293": "wijs", "2294": "ivid", "2295": "ium", "2296": "enen", "2297": " life", "2298": " hen", "2299": "oll", "2300": "houden", "2301": "aking", "2302": " make", "2303": " dep", "2304": " bescherm", "2305": " bir", "2306": "xt", "2307": "vel", "2308": "rustr", "2309": "kamer", "2310": "aging", "2311": " recklessly", "2312": " gehe", "2313": " distress", "2314": "bb", "2315": " profession", "2316": " ac", "2317": "orden", "2318": "ew", "2319": " licht", "2320": " charity", "2321": " bijzonder", "2322": " back", "2323": "gever", "2324": " witnessing", "2325": " teacher", "2326": "veren", "2327": "Ver", "2328": " zitten", "2329": " regul", "2330": " bon", "2331": "igit", "2332": "bouw", "2333": ".'", "2334": " business", "2335": " never", "2336": "mo", "2337": " zetten", "2338": "loer", "2339": "ded", "2340": "aanse", "2341": " aanv", "2342": "\u00e2\u0080\u0094", "2343": "Er", "2344": " wa", "2345": " klein", "2346": " insp", "2347": " inn", "2348": " ga", "2349": " 15", "2350": "agina", "2351": "aalde", "2352": " trust", "2353": " spelers", "2354": " respons", "2355": " duidelijk", "2356": "ty", "2357": "ico", "2358": "Dit", "2359": " order", "2360": " zie", "2361": " diverse", "2362": " beschikbaar", "2363": " choosing", "2364": " iemand", "2365": "\u00c3\u00a8", "2366": " used", "2367": " kunst", "2368": " hoge", "2369": "ga", "2370": " loud", "2371": " har", "2372": " doet", "2373": " El", "2374": " eten", "2375": "uten", "2376": "pel", "2377": "ory", "2378": "inc", "2379": "dition", "2380": " maand", "2381": " eng", "2382": "pens", "2383": "gaan", "2384": "bet", "2385": "vis", "2386": "Met", "2387": " vro", "2388": " understand", "2389": " sur", "2390": " geweld", "2391": " gebied", "2392": " consent", "2393": "ming", "2394": " high", "2395": " Pl", "2396": "ued", "2397": "ix", "2398": " wie", "2399": " init", "2400": " busy", "2401": "enk", "2402": " down", "2403": " crow", "2404": " bor", "2405": " thr", "2406": " rum", "2407": " medewerk", "2408": "huis", "2409": "egr", "2410": " repe", "2411": " ondersteun", "2412": " det", "2413": " ess", "2414": "ijen", "2415": "idden", "2416": " tru", "2417": "use", "2418": "gegeven", "2419": " reported", "2420": " begin", "2421": "gek", "2422": "appro", "2423": " offered", "2424": " wal", "2425": " voet", "2426": " lekker", "2427": "iter", "2428": " struggling", "2429": "ruim", "2430": "dam", "2431": " succes", "2432": " stranger", "2433": " ontst", "2434": " klaar", "2435": " keep", "2436": "werkt", "2437": "work", "2438": " verst", "2439": " vele", "2440": " jo", "2441": " betek", "2442": "i\u00c3\u00abnten", "2443": "iken", "2444": " someone", "2445": " Bl", "2446": "owled", "2447": "ementen", "2448": "eless", "2449": " stop", "2450": " medic", "2451": " inzet", "2452": " classmate", "2453": " acht", "2454": "ette", "2455": " hot", "2456": " groep", "2457": " consistently", "2458": "iqu", "2459": "dien", "2460": "Na", "2461": " ging", "2462": " gift", "2463": "ms", "2464": " idee", "2465": " aanwez", "2466": " Un", "2467": "itter", "2468": " repeated", "2469": " hulp", "2470": " bank", "2471": " asked", "2472": " 18", "2473": "uil", "2474": "rokken", "2475": "reet", "2476": "ialen", "2477": "30", "2478": " conc", "2479": " 12", "2480": "ullie", "2481": "ras", "2482": "ijst", "2483": " woord", "2484": " stay", "2485": " kopen", "2486": " Ge", "2487": "enden", "2488": " soms", "2489": " schoon", "2490": " prachtige", "2491": " volledig", "2492": " through", "2493": " stijl", "2494": " honestly", "2495": " hum", "2496": " daarom", "2497": "omm", "2498": "kast", "2499": "erap", "2500": "ash", "2501": " lunch", "2502": "irl", "2503": "ersch", "2504": " tweede", "2505": " spouse", "2506": " aandacht", "2507": " responsib", "2508": " lux", "2509": " prec", "2510": " famil", "2511": " wink", "2512": " sterk", "2513": " late", "2514": " gemakkelijk", "2515": "ills", "2516": " uitgeb", "2517": " roommate", "2518": " return", "2519": " plaatsen", "2520": " betekent", "2521": "self", "2522": "oeft", "2523": "gr", "2524": "abot", "2525": " would", "2526": " vac", "2527": " uitdag", "2528": " max", "2529": " cre\u00c3\u00ab", "2530": " aller", "2531": "Om", "2532": " vrouwen", "2533": " gain", "2534": " When", "2535": "asting", "2536": " werden", "2537": " politely", "2538": " mat", "2539": "ologie", "2540": " verwij", "2541": " convers", "2542": " cat", "2543": "otter", "2544": "agre", "2545": " sabot", "2546": " real", "2547": " fact", "2548": " Ar", "2549": "ijna", "2550": "ize", "2551": "cheid", "2552": "ansp", "2553": " verhaal", "2554": " pas", "2555": " lange", "2556": " diep", "2557": "orie", "2558": "allen", "2559": " cust", "2560": "uc", "2561": " verantwoord", "2562": " rekening", "2563": " duurzaam", "2564": " disagre", "2565": " allerg", "2566": "uro", "2567": "omfort", "2568": " ster", "2569": " noticing", "2570": "volg", "2571": "rass", "2572": " ziet", "2573": " unieke", "2574": " geschikt", "2575": " ge\u00c3\u00af", "2576": " bestaat", "2577": "iest", "2578": " vandaag", "2579": " seek", "2580": " jullie", "2581": " hout", "2582": "zorg", "2583": "Deze", "2584": " leu", "2585": " genoeg", "2586": " dingen", "2587": " ur", "2588": "\u00e2\u0098\u0086\u00e2\u0098\u0086", "2589": "ees", "2590": " sym", "2591": " company", "2592": " aange", "2593": "ete", "2594": " mist", "2595": " 100", "2596": "reken", "2597": "ices", "2598": "best", "2599": " war", "2600": "arly", "2601": " romant", "2602": "uurt", "2603": "hankelijk", "2604": "ctor", "2605": "50", "2606": " using", "2607": " tek", "2608": " stellen", "2609": " kwam", "2610": " kids", "2611": " author", "2612": "lement", "2613": "inde", "2614": " sister", "2615": " birth", "2616": "\u00e2\u0080\u0094\u00e2\u0080\u0094", "2617": "roken", "2618": "oorten", "2619": " lie", "2620": " jezelf", "2621": " bedrijven", "2622": "oos", "2623": "gelopen", "2624": " remain", "2625": " misschien", "2626": " denken", "2627": " beper", "2628": " bound", "2629": " anger", "2630": "oring", "2631": "ock", "2632": "oint", "2633": "ding", "2634": " voorzien", "2635": " merk", "2636": "goed", "2637": "ender", "2638": " zeggen", "2639": " sla", "2640": " individ", "2641": " gesprek", "2642": " Cas", "2643": "punt", "2644": "baarheid", "2645": "atten", "2646": " volgens", "2647": " therap", "2648": " tuin", "2649": " interview", "2650": " bar", "2651": " self", "2652": " ontdek", "2653": " harmful", "2654": " exploit", "2655": " everyone", "2656": "erst", "2657": " voldo", "2658": " oor", "2659": " making", "2660": "deel", "2661": "aries", "2662": " mess", "2663": "ured", "2664": "19", "2665": " purs", "2666": "lean", "2667": "inig", "2668": "iele", "2669": " red", "2670": " persoonlijke", "2671": " naam", "2672": " crowded", "2673": " lear", "2674": " Die", "2675": "to", "2676": "elect", "2677": "aars", "2678": " sub", "2679": " gar", "2680": " boundaries", "2681": " Re", "2682": " signific", "2683": " requ", "2684": " prevent", "2685": " digit", "2686": "tens", "2687": "port", "2688": " voordelen", "2689": " trans", "2690": " rac", "2691": " marri", "2692": " Jane", "2693": " ant", "2694": "ble", "2695": " reis", "2696": " pain", "2697": " maanden", "2698": " lucht", "2699": " delen", "2700": "koop", "2701": "istr", "2702": "ders", "2703": " gezondheid", "2704": "ucht", "2705": "ought", "2706": " moest", "2707": " go", "2708": " friendship", "2709": " camp", "2710": "aming", "2711": " verbeteren", "2712": " discomfort", "2713": " again", "2714": " Wil", "2715": "ummer", "2716": "tje", "2717": "iode", "2718": "foon", "2719": "feer", "2720": " understanding", "2721": " sug", "2722": "iting", "2723": "ched", "2724": " recent", "2725": " euro", "2726": " belitt", "2727": "elijks", "2728": " set", "2729": " mob", "2730": " import", "2731": " accidentally", "2732": "zame", "2733": "ouwd", "2734": "ative", "2735": "angen", "2736": "10", "2737": " regelmatig", "2738": " promptly", "2739": " markt", "2740": " laad", "2741": " houdt", "2742": " hal", "2743": " gebeur", "2744": " gewe", "2745": " eigenlijk", "2746": " artikel", "2747": "sluit", "2748": "othe", "2749": "'re", "2750": " voorkomen", "2751": " leid", "2752": " jon", "2753": " Is", "2754": " Gr", "2755": "ience", "2756": " meeste", "2757": "sterd", "2758": "ester", "2759": " sil", "2760": " girl", "2761": "oper", "2762": "ler", "2763": "keur", "2764": " zoveel", "2765": " significant", "2766": " ensure", "2767": " discovering", "2768": " Belg", "2769": "ted", "2770": "Waar", "2771": " service", "2772": " klim", "2773": " birthday", "2774": "lik", "2775": " aard", "2776": "stra", "2777": "het", "2778": "aw", "2779": " share", "2780": " reden", "2781": " meerdere", "2782": " lijkt", "2783": " Vol", "2784": " 200", "2785": "sk", "2786": "loop", "2787": "erde", "2788": " only", "2789": " oog", "2790": " mogelijkheden", "2791": " ent", "2792": " blijk", "2793": "mijn", "2794": "cties", "2795": " toep", "2796": " risico", "2797": " moder", "2798": " hurt", "2799": " hist", "2800": " gegevens", "2801": " diff", "2802": "sterdam", "2803": "slag", "2804": "ocus", "2805": "ensen", "2806": " uitge", "2807": " uite", "2808": " strateg", "2809": " kaart", "2810": " grand", "2811": " eenvoudig", "2812": " cult", "2813": " bijna", "2814": " ed", "2815": "pri", "2816": "ilig", "2817": " verwacht", "2818": " vrouw", "2819": " minuten", "2820": " date", "2821": " compet", "2822": "verd", "2823": "part", "2824": "ended", "2825": " qual", "2826": " muziek", "2827": " frustr", "2828": " calmly", "2829": "rupt", "2830": "elijkheid", "2831": " vroeg", "2832": " sever", "2833": " helpt", "2834": " fund", "2835": " betaal", "2836": " appar", "2837": "trek", "2838": " kleuren", "2839": "ute", "2840": "ese", "2841": " overw", "2842": " mock", "2843": " more", "2844": " gezien", "2845": " constantly", "2846": " begrij", "2847": " Casino", "2848": "eem", "2849": " took", "2850": " protect", "2851": " dezelfde", "2852": "pos", "2853": "nl", "2854": "maat", "2855": "\",", "2856": " youn", "2857": " oude", "2858": " curs", "2859": " 30", "2860": "ony", "2861": "imale", "2862": " probleem", "2863": " makkelijk", "2864": " beetje", "2865": "vin", "2866": "urr", "2867": "ili", "2868": " specif", "2869": " phone", "2870": " neglect", "2871": " leuke", "2872": " denk", "2873": "waarden", "2874": "rist", "2875": "annen", "2876": " uitgebre", "2877": " organisatie", "2878": " invited", "2879": " film", "2880": "oke", "2881": "irc", "2882": "atform", "2883": " spread", "2884": " sal", "2885": " rumors", "2886": " mother", "2887": " inc", "2888": " declines", "2889": "ukk", "2890": "stel", "2891": "role", "2892": "illeg", "2893": "by", "2894": " soort", "2895": " one", "2896": " bad", "2897": " Cl", "2898": "wege", "2899": "rib", "2900": "ique", "2901": "iers", "2902": "eks", "2903": " prest", "2904": " listen", "2905": " hoogte", "2906": " homeless", "2907": " ervaren", "2908": " anim", "2909": "mar", "2910": " wijn", "2911": " onderhoud", "2912": " materialen", "2913": " miss", "2914": " elek", "2915": "ote", "2916": " ontwikkeling", "2917": " mens", "2918": " hoeft", "2919": " huur", "2920": " dak", "2921": " add", "2922": "str", "2923": "gang", "2924": "bar", "2925": "actie", "2926": " weken", "2927": " dienst", "2928": " chooses", "2929": " belangrijke", "2930": " bot", "2931": "ule", "2932": "indelijk", "2933": " vervolgens", "2934": " cred", "2935": " coach", "2936": " authorities", "2937": "rijving", "2938": "EO", "2939": " transp", "2940": " trip", "2941": " groen", "2942": " du", "2943": " 16", "2944": " voort", "2945": " verpl", "2946": " concer", "2947": " camer", "2948": "ider", "2949": "ern", "2950": "alse", "2951": "afel", "2952": "acc", "2953": " viol", "2954": " site", "2955": " heated", "2956": " dam", "2957": "pers", "2958": "orpen", "2959": "oogle", "2960": "irt", "2961": " sold", "2962": " precies", "2963": " lok", "2964": " Onze", "2965": "eilijk", "2966": " geweest", "2967": " gedaan", "2968": " gelijk", "2969": " clean", "2970": " anderen", "2971": " Amsterdam", "2972": "zak", "2973": "mission", "2974": "eenkomst", "2975": " volgen", "2976": " romantic", "2977": " moeilijk", "2978": " grootste", "2979": " favorite", "2980": " expens", "2981": " baby", "2982": " illeg", "2983": "orp", "2984": "geveer", "2985": " strand", "2986": " sociale", "2987": " ow", "2988": " meteen", "2989": " elektr", "2990": " beginnen", "2991": "stof", "2992": "reden", "2993": "ellingen", "2994": "aste", "2995": "Wij", "2996": "Van", "2997": " zegt", "2998": " veilig", "2999": " oplossing", "3000": " medical", "3001": " langs", "3002": " bur", "3003": "stuk", "3004": "punten", "3005": "kund", "3006": "ited", "3007": " vle", "3008": " pap", "3009": " love", "3010": " false", "3011": " enige", "3012": " beeld", "3013": " aff", "3014": "won", "3015": "selves", "3016": "rijzen", "3017": " urge", "3018": " themselves", "3019": " niets", "3020": " hoeveel", "3021": " employee", "3022": "will", "3023": "ueel", "3024": "ree", "3025": "icul", "3026": "achte", "3027": "',", "3028": " sim", "3029": " press", "3030": " passen", "3031": " pagina", "3032": " krijg", "3033": " jur", "3034": " bouw", "3035": " amb", "3036": " afgelopen", "3037": " Ins", "3038": "oul", "3039": "nam", "3040": "middels", "3041": "ause", "3042": "aris", "3043": "agement", "3044": " waarom", "3045": " spra", "3046": " show", "3047": "avior", "3048": " samenwerking", "3049": " loop", "3050": " gemeente", "3051": " combinatie", "3052": "tern", "3053": "stellen", "3054": "raagt", "3055": " take", "3056": " mogen", "3057": " locatie", "3058": " drug", "3059": " cre\u00c3\u00abren", "3060": " asking", "3061": " against", "3062": "oking", "3063": "iveau", "3064": " sfeer", "3065": " reve", "3066": " gener", "3067": " found", "3068": " accept", "3069": " Nederlandse", "3070": "par", "3071": "met", "3072": "esloten", "3073": " weekend", "3074": " meter", "3075": " jong", "3076": " draa", "3077": "aliseren", "3078": " veiligheid", "3079": " tips", "3080": " crit", "3081": " bepaalde", "3082": " bru", "3083": " alone", "3084": "vert", "3085": "ichte", "3086": " problemen", "3087": " pleas", "3088": " medewerkers", "3089": " detail", "3090": " book", "3091": " ann", "3092": "usic", "3093": "otterdam", "3094": "illen", "3095": " train", "3096": " gebruikers", "3097": " focus", "3098": " effic", "3099": " band", "3100": "oet", "3101": "gew", "3102": " programma", "3103": " ite", "3104": "uizen", "3105": "set", "3106": "ners", "3107": "hoog", "3108": "dule", "3109": " volunt", "3110": " levens", "3111": " just", "3112": " community", "3113": " buy", "3114": "heer", "3115": "gesch", "3116": "eding", "3117": " respects", "3118": " request", "3119": " proces", "3120": " milj", "3121": " explain", "3122": " exc", "3123": " begele", "3124": "mach", "3125": "ekenen", "3126": " than", "3127": " korte", "3128": " eerder", "3129": " autom", "3130": "ohol", "3131": "komt", "3132": "inst", "3133": "ijs", "3134": "genomen", "3135": "cohol", "3136": "apt", "3137": "allet", "3138": " police", "3139": " frequ", "3140": " conversation", "3141": " betrouw", "3142": " betre", "3143": " ble", "3144": "rift", "3145": "oof", "3146": "mers", "3147": "ends", "3148": " pak", "3149": "oden", "3150": "nowled", "3151": "emming", "3152": " sexual", "3153": " private", "3154": " owner", "3155": " deb", "3156": " cri", "3157": " begon", "3158": " Google", "3159": "orting", "3160": "ival", "3161": " wedst", "3162": " ongeveer", "3163": " bezig", "3164": " behoeft", "3165": " aband", "3166": "\u00e2\u0080\u008b", "3167": "ring", "3168": "rik", "3169": "mail", "3170": "ica", "3171": "cknowled", "3172": " ontsp", "3173": " mer", "3174": " lopen", "3175": " ignored", "3176": " huidige", "3177": " have", "3178": " avond", "3179": " afspra", "3180": " advies", "3181": " activiteiten", "3182": " acknowled", "3183": "vorm", "3184": " watch", "3185": " sus", "3186": " ol", "3187": " nad", "3188": " lost", "3189": " integr", "3190": "kant", "3191": " terecht", "3192": " offering", "3193": " mov", "3194": " middel", "3195": " behavior", "3196": " At", "3197": "stemen", "3198": "ively", "3199": "ished", "3200": " vold", "3201": " secure", "3202": " log", "3203": " adm", "3204": "tract", "3205": "shop", "3206": " solely", "3207": " slag", "3208": " repeatedly", "3209": " continued", "3210": " brand", "3211": " beweg", "3212": " weinig", "3213": " moe", "3214": " minor", "3215": " account", "3216": " Br", "3217": " i", "3218": "\u00c3\u00b3", "3219": "regen", "3220": "log", "3221": "empt", "3222": " traject", "3223": " slot", "3224": " bijd", "3225": " assist", "3226": "ukkig", "3227": "ives", "3228": "igers", "3229": "des", "3230": " vloer", "3231": " promotion", "3232": " music", "3233": " kar", "3234": " hyp", "3235": " gast", "3236": " 24", "3237": "plaats", "3238": "ovendien", "3239": "entieel", "3240": "En", "3241": " perform", "3242": " ieder", "3243": " gezell", "3244": " Rotterdam", "3245": " 14", "3246": "raad", "3247": "emb", "3248": " wet", "3249": " proper", "3250": " perfecte", "3251": " kijk", "3252": " ges", "3253": " echte", "3254": "zijd", "3255": "ureau", "3256": "sto", "3257": " vertrouwen", "3258": " toegang", "3259": " positie", "3260": " permission", "3261": " ontwerp", "3262": " leggen", "3263": " fair", "3264": " exam", "3265": " dank", "3266": " couldn", "3267": "gesteld", "3268": "clusief", "3269": " spe", "3270": " sho", "3271": " comment", "3272": " bonus", "3273": " 25", "3274": "ped", "3275": "ats", "3276": " voldoende", "3277": " uitvo", "3278": " soorten", "3279": "vrij", "3280": "ook", "3281": "ex", "3282": " voordat", "3283": " initi", "3284": " gu", "3285": " games", "3286": " cruc", "3287": " boss", "3288": "spel", "3289": "plic", "3290": "ired", "3291": "groep", "3292": "being", "3293": "auw", "3294": "aa", "3295": " regio", "3296": " hor", "3297": " front", "3298": " def", "3299": " claiming", "3300": " breed", "3301": "vend", "3302": " vakantie", "3303": " rele", "3304": " meet", "3305": " leiden", "3306": " grocer", "3307": " gele", "3308": " abandon", "3309": " et", "3310": "onde", "3311": " suggest", "3312": " mogelijkheid", "3313": " learning", "3314": " klass", "3315": " internet", "3316": " apart", "3317": "sc", "3318": "ructuur", "3319": "rast", "3320": "erende", "3321": "cept", "3322": " vond", "3323": " gep", "3324": " fys", "3325": " decis", "3326": " CO", "3327": "uigen", "3328": "iviteit", "3329": "ics", "3330": " uiter", "3331": " nood", "3332": " equ", "3333": " aanwezig", "3334": " AI", "3335": "werpen", "3336": " zoeken", "3337": " sinds", "3338": " ogen", "3339": " made", "3340": " live", "3341": " kost", "3342": " insisted", "3343": " credit", "3344": " avoiding", "3345": "zijn", "3346": "appen", "3347": "ances", "3348": " resisted", "3349": " onderdeel", "3350": " moderne", "3351": " fiets", "3352": " attempt", "3353": "voerd", "3354": "plan", "3355": "ozen", "3356": "ioen", "3357": "ieur", "3358": " rij", "3359": " nauw", "3360": " kre", "3361": " 50", "3362": "wards", "3363": "ril", "3364": "oenen", "3365": "ode", "3366": "anks", "3367": " ontvangen", "3368": "oft", "3369": "bre", "3370": "assing", "3371": "appropri", "3372": " volunteer", "3373": " neemt", "3374": " mannen", "3375": " kop", "3376": " himself", "3377": " hadden", "3378": " girlfriend", "3379": " expensive", "3380": " emotional", "3381": " doe", "3382": " da", "3383": " belangrijkste", "3384": "uter", "3385": "inn", "3386": "andid", "3387": " voorb", "3388": " situatie", "3389": " po", "3390": " ontwikkelen", "3391": " Wanneer", "3392": "wers", "3393": "ised", "3394": " vormen", "3395": " use", "3396": " personen", "3397": " begint", "3398": "zz", "3399": "zier", "3400": "rang", "3401": "ecial", "3402": "12", "3403": "--", "3404": " select", "3405": " ob", "3406": " near", "3407": " leeft", "3408": " harsh", "3409": " halen", "3410": " groei", "3411": " fac", "3412": " Waar", "3413": " Onder", "3414": " \u00c3\u00a9n", "3415": "vi", "3416": "rect", "3417": "ober", "3418": "nemen", "3419": " stappen", "3420": " slechts", "3421": " office", "3422": " lid", "3423": " intern", "3424": " gelegen", "3425": " bedo", "3426": " alcohol", "3427": "uig", "3428": "ously", "3429": "esse", "3430": "beg", "3431": "AN", "3432": " wind", "3433": " wife", "3434": " teken", "3435": " shel", "3436": " inspir", "3437": " handen", "3438": " arbe", "3439": " afstand", "3440": " ident", "3441": "ogra", "3442": "oven", "3443": "maken", "3444": "ienen", "3445": "icip", "3446": "gemeen", "3447": "delen", "3448": "Over", "3449": " surpr", "3450": " inge", "3451": " disagreement", "3452": " God", "3453": "202", "3454": "...", "3455": " stress", "3456": " soft", "3457": " rout", "3458": " join", "3459": " innov", "3460": " familie", "3461": " fra", "3462": " fant", "3463": " fals", "3464": " drink", "3465": "vriend", "3466": "time", "3467": "osp", "3468": "ased", "3469": "\".", "3470": " speelt", "3471": " lezen", "3472": " link", "3473": " langer", "3474": " dragen", "3475": " advoc", "3476": " Daarom", "3477": "spro", "3478": "raal", "3479": "otheek", "3480": "IN", "3481": " waaronder", "3482": " telefoon", "3483": " naast", "3484": " kreeg", "3485": " intim", "3486": " impact", "3487": " blijkt", "3488": "urity", "3489": "ires", "3490": "igde", "3491": "ified", "3492": "gez", "3493": " zicht", "3494": " upset", "3495": " cash", "3496": " called", "3497": "ieven", "3498": " right", "3499": " prioritized", "3500": " liggen", "3501": " enth", "3502": " doc", "3503": " Dus", "3504": " Ben", "3505": "vallen", "3506": "iep", "3507": "hold", "3508": "eller", "3509": "Sp", "3510": " somm", "3511": " nieuws", "3512": " klimaat", "3513": " heen", "3514": " betrokken", "3515": " april", "3516": "ekende", "3517": " thre", "3518": " schade", "3519": " son", "3520": " praktijk", "3521": " onver", "3522": " form", "3523": "ules", "3524": "iver", "3525": "hal", "3526": " text", "3527": " hers", "3528": " collega", "3529": " bak", "3530": "urende", "3531": "umenten", "3532": "ogelijk", "3533": "iedenis", "3534": "cri", "3535": " wilde", "3536": " wedding", "3537": " severe", "3538": " periode", "3539": " name", "3540": " loudly", "3541": " laag", "3542": " jan", "3543": " hy", "3544": " feit", "3545": " bereiken", "3546": "ome", "3547": "off", "3548": "mak", "3549": "ebruik", "3550": " zaken", "3551": " sleep", "3552": " needs", "3553": " motor", "3554": " invitation", "3555": " bevat", "3556": " bele", "3557": "standigheden", "3558": "ruit", "3559": "iliteit", "3560": "conom", "3561": " zouden", "3562": " toevo", "3563": " tempt", "3564": " tev", "3565": " nat", "3566": " gedrag", "3567": " behandeling", "3568": " Bovendien", "3569": "burg", "3570": "band", "3571": " wallet", "3572": " voert", "3573": " father", "3574": " cursus", "3575": " Zij", "3576": " Tim", "3577": " are", "3578": "sych", "3579": "kw", "3580": "ital", "3581": "isen", "3582": "gesp", "3583": "ests", "3584": " vacation", "3585": " stij", "3586": " koop", "3587": " inz", "3588": " free", "3589": " duurzame", "3590": " college", "3591": " bod", "3592": " aanpak", "3593": " Te", "3594": " Niet", "3595": " James", "3596": " slaap", "3597": " inappropri", "3598": " embar", "3599": " apolog", "3600": "leven", "3601": "ationale", "3602": "aringen", "3603": "Dat", "3604": " zak", "3605": " year", "3606": " winkel", "3607": " vijf", "3608": " resultaat", "3609": " platform", "3610": " lokale", "3611": " leveren", "3612": " embarrass", "3613": " buurt", "3614": " afhankelijk", "3615": " Over", "3616": " Alle", "3617": " 17", "3618": "uut", "3619": "uing", "3620": "staande", "3621": "schijn", "3622": "reng", "3623": " stole", "3624": " professionele", "3625": " oef", "3626": " iss", "3627": " antwoord", "3628": "markt", "3629": "icit", "3630": "Onze", "3631": " termijn", "3632": " tas", "3633": " schedule", "3634": " sick", "3635": " opleiding", "3636": " Ad", "3637": "ruimte", "3638": "oeken", "3639": "lei", "3640": "groe", "3641": "ability", "3642": "Ook", "3643": " waarop", "3644": " opnieuw", "3645": " ontworpen", "3646": " illegal", "3647": " design", "3648": " betere", "3649": " Ste", "3650": "wijf", "3651": "rec", "3652": "onn", "3653": "oemd", "3654": "oel", "3655": "itor", "3656": "inter", "3657": "Wanneer", "3658": " verplicht", "3659": " richting", "3660": " mei", "3661": " heerlijk", "3662": " Tom", "3663": " Jack", "3664": "rict", "3665": "igingen", "3666": "ieken", "3667": "enn", "3668": "ening", "3669": "Wil", "3670": "EL", "3671": " vergelijk", "3672": " tradition", "3673": " rode", "3674": " review", "3675": " geworden", "3676": " ensures", "3677": " beide", "3678": " Th", "3679": " Amerik", "3680": "yle", "3681": "joy", "3682": "hood", "3683": " voelt", "3684": " specifieke", "3685": " refrains", "3686": " noticed", "3687": " meal", "3688": " less", "3689": " flex", "3690": " aantrek", "3691": " 2025", "3692": " Q", "3693": "resp", "3694": "ites", "3695": "eloos", "3696": "ekken", "3697": "bedrijf", "3698": "avond", "3699": "aid", "3700": " sw", "3701": " sess", "3702": " mail", "3703": " hond", "3704": " fear", "3705": " Duit", "3706": "stem", "3707": "ople", "3708": "clud", "3709": "aalt", "3710": " winnen", "3711": " voelen", "3712": " training", "3713": " temper", "3714": " geldt", "3715": " enjoy", "3716": " depress", "3717": " dem", "3718": " data", "3719": " bevest", "3720": " Mijn", "3721": " Hierdoor", "3722": " Bra", "3723": " X", "3724": "\u00e2\u0081", "3725": "yl", "3726": "urb", "3727": "ouder", "3728": "adem", "3729": "aarten", "3730": " vrijwill", "3731": " quick", "3732": " procent", "3733": " inmiddels", "3734": " geluid", "3735": " bud", "3736": " Kl", "3737": " 21", "3738": "ges", "3739": " shop", "3740": " raad", "3741": " openly", "3742": " gere", "3743": " duurzaamheid", "3744": " digitale", "3745": " cm", "3746": " brother", "3747": " bewust", "3748": " attent", "3749": "gress", "3750": "eringen", "3751": "eest", "3752": " zet", "3753": " werkzaam", "3754": " smaak", "3755": " regularly", "3756": " ouders", "3757": " convin", "3758": " begrijpen", "3759": " bedrijfs", "3760": "plaatst", "3761": "Door", "3762": " waarmee", "3763": " waard", "3764": " surprise", "3765": " saving", "3766": " pret", "3767": " jun", "3768": " interieur", "3769": " hotel", "3770": " expert", "3771": " diensten", "3772": " camera", "3773": "vig", "3774": "gelegd", "3775": "ence", "3776": "centr", "3777": " voldoen", "3778": " verster", "3779": " reveal", "3780": " relig", "3781": " plezier", "3782": " geheel", "3783": " entire", "3784": " Aan", "3785": " 13", "3786": "uari", "3787": "loed", "3788": "izoen", "3789": "izen", "3790": "duc", "3791": " prijzen", "3792": " ingred", "3793": " daarna", "3794": " colleagues", "3795": " club", "3796": " cra", "3797": " ang", "3798": " /", "3799": "rein", "3800": "ows", "3801": " valt", "3802": " unt", "3803": " pref", "3804": " ople", "3805": " medication", "3806": " inj", "3807": " geleden", "3808": " einde", "3809": " contra", "3810": "ream", "3811": "own", "3812": "oms", "3813": "anen", "3814": "Ge", "3815": " vanwege", "3816": " systeem", "3817": " stem", "3818": " sne", "3819": " actie", "3820": " Zorg", "3821": "ffic", "3822": " strategie", "3823": " persoonlijk", "3824": " drin", "3825": " dislik", "3826": " decision", "3827": " correct", "3828": " commitment", "3829": " Tijdens", "3830": " Nu", "3831": " Car", "3832": "ries", "3833": "igt", "3834": " zin", "3835": " wensen", "3836": " totaal", "3837": " sommige", "3838": " invloed", "3839": " gerecht", "3840": " frequently", "3841": " Neem", "3842": "ully", "3843": "middelen", "3844": "gency", "3845": "fl", "3846": "ekk", "3847": "agn", "3848": "Pro", "3849": " sabotaged", "3850": " rob", "3851": " performance", "3852": " hop", "3853": " borrow", "3854": " aanbied", "3855": " Sh", "3856": " Maria", "3857": " Insight", "3858": "ysteem", "3859": "akes", "3860": " speciale", "3861": " skip", "3862": " posit", "3863": " patient", "3864": " netwerk", "3865": " materiaal", "3866": " full", "3867": " customer", "3868": " bloed", "3869": " betalen", "3870": "schijnlijk", "3871": "oken", "3872": "jaar", "3873": "ells", "3874": "druk", "3875": "chite", "3876": " warmte", "3877": " view", "3878": " punt", "3879": " port", "3880": " old", "3881": " movie", "3882": " look", "3883": " jud", "3884": " gath", "3885": " ev", "3886": " check", "3887": " Or", "3888": " Jan", "3889": "ustrie", "3890": "iste", "3891": "chitect", "3892": " profit", "3893": " peace", "3894": " ontvang", "3895": " mezelf", "3896": " married", "3897": " januari", "3898": " intro", "3899": " inzicht", "3900": " illness", "3901": " hang", "3902": " demand", "3903": " control", "3904": " carefully", "3905": " based", "3906": " allergy", "3907": " arm", "3908": "rijden", "3909": "merk", "3910": "kracht", "3911": " woorden", "3912": " wijze", "3913": " verzorg", "3914": " vor", "3915": " offic", "3916": " lim", "3917": " indruk", "3918": " gevolg", "3919": " gathering", "3920": " dating", "3921": " bouwen", "3922": " Zijn", "3923": "zeker", "3924": "oze", "3925": "apen", "3926": " younger", "3927": " uiteindelijk", "3928": " stat", "3929": " rijden", "3930": " kindness", "3931": " hoger", "3932": " dicht", "3933": " aanp", "3934": " Gro", "3935": "igin", "3936": "ipl", "3937": " weight", "3938": " verzam", "3939": " resist", "3940": " nacht", "3941": " kindly", "3942": " half", "3943": " feest", "3944": " aanbod", "3945": " Vl", "3946": "used", "3947": "tes", "3948": "neming", "3949": "ipul", "3950": "ether", "3951": "OO", "3952": "Daar", "3953": " wor", "3954": " shelter", "3955": " mut", "3956": " gekozen", "3957": " drugs", "3958": " bec", "3959": " ans", "3960": " actief", "3961": "zer", "3962": "techn", "3963": "rat", "3964": "chten", "3965": "book", "3966": "baan", "3967": "Be", "3968": " verkoop", "3969": " type", "3970": " move", "3971": " interess", "3972": " forg", "3973": " finding", "3974": " content", "3975": " appear", "3976": " Ph", "3977": " Europese", "3978": "uper", "3979": "ervice", "3980": " zichzelf", "3981": " zomer", "3982": " var", "3983": " publiek", "3984": " plant", "3985": " manipul", "3986": " hetzelfde", "3987": " functie", "3988": " flexib", "3989": " enkel", "3990": " doctor", "3991": " cop", "3992": " boeken", "3993": " belief", "3994": " arbeids", "3995": "vuld", "3996": "reen", "3997": "aves", "3998": "Maar", "3999": " vere", "4000": " uitstr", "4001": " towards", "4002": " rug", "4003": " oplossingen", "4004": " mass", "4005": " heart", "4006": " gec", "4007": " enorm", "4008": " daarbij", "4009": " Sl", "4010": " #", "4011": "\u00c3\u00b6", "4012": "partner", "4013": "middel", "4014": "iently", "4015": " trouw", "4016": " proberen", "4017": " gemeen", "4018": " felt", "4019": " essentieel", "4020": " circ", "4021": "ury", "4022": "danks", "4023": "Zo", "4024": " particip", "4025": " pan", "4026": " kantoor", "4027": " inhoud", "4028": " ern", "4029": " concerns", "4030": " baan", "4031": " 11", "4032": "kennen", "4033": "ita", "4034": "elijkse", "4035": " wedden", "4036": " web", "4037": " presentation", "4038": " psych", "4039": " natuurlijke", "4040": " mark", "4041": " liefde", "4042": " blog", "4043": " bestaan", "4044": "regelen", "4045": "ocol", "4046": "lang", "4047": "iation", "4048": "ecting", "4049": " stof", "4050": " situation", "4051": " histor", "4052": " bedrag", "4053": " Belgi\u00c3\u00ab", "4054": " Af", "4055": "waardige", "4056": "unst", "4057": "ribut", "4058": "path", "4059": "jar", "4060": "beh", "4061": "Waarom", "4062": " skills", "4063": " prank", "4064": " mocked", "4065": " deelnemers", "4066": " Em", "4067": "unning", "4068": "ondag", "4069": "ll", "4070": "gebruik", "4071": "ervaring", "4072": "eing", "4073": "ES", "4074": " verschil", "4075": " vari", "4076": " space", "4077": " overt", "4078": " overhe", "4079": " ontstaan", "4080": " mult", "4081": " luxe", "4082": " kru", "4083": " horen", "4084": " ervan", "4085": " bezoekers", "4086": "ourn", "4087": "ky", "4088": "iende", "4089": " taking", "4090": " standaard", "4091": " kil", "4092": " ideaal", "4093": " fiet", "4094": " enthous", "4095": " beoord", "4096": " bes", "4097": " SEO", "4098": "nel", "4099": "lict", "4100": "gelijk", "4101": "cking", "4102": "!!", "4103": " tw", "4104": " tafel", "4105": " taal", "4106": " maatschapp", "4107": " koel", "4108": " educ", "4109": " automat", "4110": " allerlei", "4111": " x", "4112": "veil", "4113": "uch", "4114": "ross", "4115": "gemen", "4116": "gemene", "4117": " uitstraling", "4118": " thema", "4119": " patiently", "4120": " milieu", "4121": " mach", "4122": " leave", "4123": " geweldige", "4124": " emer", "4125": " econom", "4126": " brengt", "4127": " beleg", "4128": " algemeen", "4129": " access", "4130": " Denk", "4131": "vall", "4132": "ores", "4133": "onom", "4134": "komsten", "4135": "AL", "4136": " tool", "4137": " stond", "4138": " software", "4139": " returned", "4140": " ondernemer", "4141": " jonge", "4142": " dilig", "4143": " boy", "4144": " besluit", "4145": " Gel", "4146": "za", "4147": "ubl", "4148": "elaar", "4149": "Re", "4150": " years", "4151": " winter", "4152": " vent", "4153": " stelt", "4154": " showing", "4155": " rather", "4156": " projecten", "4157": " meeg", "4158": " maart", "4159": " humili", "4160": " geschiedenis", "4161": " expressing", "4162": " drive", "4163": " diligently", "4164": " deep", "4165": " daarmee", "4166": " animal", "4167": " anal", "4168": " Uit", "4169": " Frank", "4170": " For", "4171": "verb", "4172": "kens", "4173": "gn", "4174": "erent", "4175": "Af", "4176": " winst", "4177": " ul", "4178": " nov", "4179": " mistake", "4180": " meestal", "4181": " leden", "4182": " december", "4183": " dead", "4184": " consid", "4185": " card", "4186": " betreft", "4187": " because", "4188": "enda", "4189": "18", "4190": " zonn", "4191": " wedstrijd", "4192": " stre", "4193": " race", "4194": " prima", "4195": " impress", "4196": " gemidd", "4197": " fa", "4198": " derde", "4199": " computer", "4200": " Con", "4201": "nieuw", "4202": "ilities", "4203": "ertific", "4204": "come", "4205": "blij", "4206": "aardigheden", "4207": " sect", "4208": " regels", "4209": " organisaties", "4210": " manieren", "4211": " koff", "4212": " gave", "4213": " functies", "4214": " feed", "4215": "versch", "4216": "uli", "4217": "onie", "4218": "bru", "4219": "alt", "4220": "15", "4221": " zwart", "4222": " unf", "4223": " told", "4224": " tekst", "4225": " tien", "4226": " stil", "4227": " phys", "4228": " lijst", "4229": " interven", "4230": " cover", "4231": " begeleiding", "4232": "veld", "4233": "lijn", "4234": "iversiteit", "4235": "heids", "4236": "eptember", "4237": " wist", "4238": " uns", "4239": " tri", "4240": " resultaten", "4241": " populaire", "4242": " kennen", "4243": " gewen", "4244": " fire", "4245": " encouraged", "4246": " emergency", "4247": " Ont", "4248": "uim", "4249": "ically", "4250": "eelden", "4251": "ars", "4252": "Wel", "4253": " woningen", "4254": " ondersteuning", "4255": " onge", "4256": " insist", "4257": " inappropriate", "4258": " foll", "4259": " else", "4260": " dece", "4261": " bevord", "4262": " est", "4263": "ux", "4264": "erschap", "4265": "Uit", "4266": " waarvan", "4267": " verkrij", "4268": " verkopen", "4269": " verv", "4270": " rid", "4271": " miljoen", "4272": " effort", "4273": " cous", "4274": " bijzondere", "4275": " bestaande", "4276": " beliefs", "4277": " Samen", "4278": "\u00e2\u0080\u0093", "4279": "sequ", "4280": "oster", "4281": "lop", "4282": "kundige", "4283": "ikken", "4284": "ieel", "4285": "icy", "4286": " wachten", "4287": " verantwoordelijk", "4288": " toege", "4289": " rad", "4290": " meub", "4291": " leeftijd", "4292": " each", "4293": " dieren", "4294": " critic", "4295": " cheating", "4296": " bestuur", "4297": " abs", "4298": " Zuid", "4299": " Ter", "4300": "viron", "4301": "unk", "4302": "haust", "4303": " voetbal", "4304": " ve", "4305": " toest", "4306": " snelle", "4307": " record", "4308": " punten", "4309": " neighbors", "4310": " landen", "4311": " kansen", "4312": " kinder", "4313": " driving", "4314": " considering", "4315": " bag", "4316": " acknowledging", "4317": " eth", "4318": "zing", "4319": "zes", "4320": "vironment", "4321": "onds", "4322": "merken", "4323": "gether", "4324": "derd", "4325": "atter", "4326": "arts", "4327": "aakte", "4328": " zei", "4329": " wanting", "4330": " together", "4331": " overzicht", "4332": " non", "4333": " gokken", "4334": " gebracht", "4335": " funds", "4336": " exhaust", "4337": " convinced", "4338": " conflict", "4339": " complex", "4340": " budget", "4341": " bepalen", "4342": " altern", "4343": " aanzien", "4344": " 2019", "4345": "hebb", "4346": "acties", "4347": " warme", "4348": " vermogen", "4349": " teen", "4350": " reput", "4351": " read", "4352": " phot", "4353": " ontmo", "4354": " okt", "4355": " nut", "4356": " niveau", "4357": " hit", "4358": " genomen", "4359": " frustration", "4360": " consequ", "4361": " appearance", "4362": " Laat", "4363": "vaart", "4364": "rel", "4365": "park", "4366": "okken", "4367": "fen", "4368": "eng", "4369": "Ar", "4370": "AR", "4371": " wonen", "4372": " vlees", "4373": " vallen", "4374": " speciaal", "4375": " origin", "4376": " ontdekken", "4377": " ooit", "4378": " neer", "4379": " items", "4380": " ge\u00c3\u00afn", "4381": " fot", "4382": " environment", "4383": " cousin", "4384": " contract", "4385": " controle", "4386": " beweging", "4387": " babys", "4388": " avont", "4389": " attending", "4390": " activities", "4391": " aangeb", "4392": " .", "4393": "standig", "4394": "oepen", "4395": "aul", "4396": " voorbeeld", "4397": " repl", "4398": " prioritize", "4399": " pract", "4400": " playing", "4401": " pur", "4402": " omstandigheden", "4403": " las", "4404": " host", "4405": " gam", "4406": " cook", "4407": " cut", "4408": " cour", "4409": " Wel", "4410": " Veren", "4411": "oman", "4412": "mogelijk", "4413": "dur", "4414": "aterdag", "4415": "ala", "4416": " \u00e2\u0080\u008b", "4417": " until", "4418": " treat", "4419": " tick", "4420": " spann", "4421": " slim", "4422": " prioritizing", "4423": " partijen", "4424": " overl", "4425": " november", "4426": " geniet", "4427": " gehad", "4428": " good", "4429": " organ", "4430": "volgen", "4431": "vat", "4432": "ulling", "4433": "uleren", "4434": "oulette", "4435": "kle", "4436": "istische", "4437": "gegevens", "4438": "enti\u00c3\u00able", "4439": "elebr", "4440": "ball", "4441": "aster", "4442": " wild", "4443": " volledige", "4444": " volgt", "4445": " realizing", "4446": " perspect", "4447": " model", "4448": " mobiele", "4449": " importance", "4450": " hoop", "4451": " geplaatst", "4452": " communicatie", "4453": " can", "4454": " Want", "4455": " Veel", "4456": "wezen", "4457": "pped", "4458": "pecting", "4459": "lingen", "4460": "kosten", "4461": " wijz", "4462": " truth", "4463": " tevreden", "4464": " september", "4465": " richt", "4466": " quiet", "4467": " prestaties", "4468": " princ", "4469": " opg", "4470": " merken", "4471": " mental", "4472": " luist", "4473": " information", "4474": " inher", "4475": " impro", "4476": " excess", "4477": " bewon", "4478": " Bet", "4479": "water", "4480": "prijs", "4481": "mp", "4482": "aaf", "4483": " vlie", "4484": " vit", "4485": " silent", "4486": " sens", "4487": " pun", "4488": " opge", "4489": " moeite", "4490": " klassieke", "4491": " heerlijke", "4492": " harshly", "4493": " geef", "4494": " first", "4495": " disresp", "4496": " both", "4497": " beroep", "4498": "\u00f0\u009f", "4499": "olf", "4500": "name", "4501": "kelijke", "4502": "idence", "4503": "icro", "4504": "anje", "4505": "An", "4506": " zoekt", "4507": " zes", "4508": " sterke", "4509": " stim", "4510": " seeking", "4511": " savings", "4512": " pursue", "4513": " productie", "4514": " nearby", "4515": " loopt", "4516": " kleding", "4517": " glas", "4518": " financi\u00c3\u00able", "4519": " details", "4520": " confront", "4521": " centrum", "4522": " Man", "4523": " Christ", "4524": " 199", "4525": "okk", "4526": "loos", "4527": "ishing", "4528": "ible", "4529": "etjes", "4530": "eme", "4531": "blijf", "4532": "ategorie", "4533": " views", "4534": " verf", "4535": " temptation", "4536": " relatie", "4537": " interest", "4538": " installatie", "4539": " intens", "4540": " heav", "4541": " gevallen", "4542": " force", "4543": " diet", "4544": " collectie", "4545": " breaking", "4546": " adopt", "4547": "\u00e2\u0080\u0094\u00e2\u0080\u0094\u00e2\u0080\u0094\u00e2\u0080\u0094", "4548": "stre", "4549": "leggen", "4550": "Onder", "4551": " vul", "4552": " veg", "4553": " success", "4554": " step", "4555": " kap", "4556": " inclusief", "4557": " hierbij", "4558": " groene", "4559": " firmly", "4560": " camping", "4561": " bood", "4562": " bepaald", "4563": " admin", "4564": " Hel", "4565": "wed", "4566": "verlen", "4567": "sn", "4568": "icent", "4569": "gebied", "4570": " talent", "4571": " sneller", "4572": " rijk", "4573": " optie", "4574": " midden", "4575": " laugh", "4576": " kerk", "4577": " handig", "4578": " gebouw", "4579": "ume", "4580": "oorz", "4581": "mater", "4582": "las", "4583": "ieuwe", "4584": "iete", "4585": "gar", "4586": " uniek", "4587": " people", "4588": " paying", "4589": " onderwijs", "4590": " eeuw", "4591": " eet", "4592": " dient", "4593": " celebr", "4594": " applic", "4595": "stoffen", "4596": "roon", "4597": "proces", "4598": "ortiment", "4599": "ism", "4600": "igend", "4601": "fun", "4602": "esc", "4603": "berg", "4604": "bro", "4605": "bra", "4606": "alous", "4607": "aced", "4608": "ET", "4609": "36", "4610": " vrienden", "4611": " uitdaging", "4612": " tar", "4613": " spot", "4614": " spellen", "4615": " prachtig", "4616": " parkeer", "4617": " oktober", "4618": " messages", "4619": " list", "4620": " juni", "4621": " gas", "4622": " fout", "4623": " dismiss", "4624": " cap", "4625": " canc", "4626": " 40", "4627": "ustr", "4628": "play", "4629": "ikte", "4630": "ijt", "4631": "iere", "4632": "iction", "4633": "halen", "4634": "egenwoord", "4635": "edere", "4636": "alk", "4637": " visit", "4638": " uitgebreide", "4639": " sporten", "4640": " sharing", "4641": " sing", "4642": " rent", "4643": " positieve", "4644": " onders", "4645": " maakte", "4646": " genoemd", "4647": " gehouden", "4648": " falsely", "4649": " fail", "4650": " expertise", "4651": " Omdat", "4652": "vast", "4653": "ural", "4654": "ugust", "4655": "lu", "4656": "ias", "4657": "erson", "4658": "egt", "4659": "comfort", "4660": "ches", "4661": "ason", "4662": "ON", "4663": "11", "4664": " zee", "4665": " werkzaamheden", "4666": " vooraf", "4667": " vertellen", "4668": " verlen", "4669": " technologie", "4670": " schil", "4671": " lif", "4672": " hours", "4673": " gezin", "4674": " elekt", "4675": " denkt", "4676": " committed", "4677": " bron", "4678": " 22", "4679": "wikk", "4680": "vlak", "4681": "vest", "4682": "side", "4683": "reed", "4684": "opped", "4685": "matige", "4686": "ergrond", "4687": " ziek", "4688": " wealth", "4689": " voorwaarden", "4690": " voeren", "4691": " verwachten", "4692": " vergr", "4693": " spreading", "4694": " nummer", "4695": " leading", "4696": " lon", "4697": " kamp", "4698": " hearing", "4699": " driver", "4700": " doord", "4701": " bekijken", "4702": " aang", "4703": " Par", "4704": " Mark", "4705": " Kon", "4706": "wiss", "4707": "wijd", "4708": "wet", "4709": "vering", "4710": "iner", "4711": "illed", "4712": "ieving", "4713": "ibr", "4714": "assingen", "4715": "anken", "4716": " waarschijnlijk", "4717": " uitgevoerd", "4718": " traditionele", "4719": " street", "4720": " maximaal", "4721": " ear", "4722": " dagelijks", "4723": " condition", "4724": " complete", "4725": " boyfriend", "4726": " afd", "4727": " You", "4728": " Sm", "4729": "icious", "4730": "ground", "4731": "eelt", "4732": "eens", "4733": "cheiden", "4734": "centrum", "4735": "back", "4736": "ational", "4737": "arming", "4738": "ankzij", "4739": " schrij", "4740": " jealous", "4741": " gereg", "4742": " geloof", "4743": " eventuele", "4744": " dankzij", "4745": " crucial", "4746": " coworkers", "4747": " attention", "4748": " attract", "4749": " apprec", "4750": " Tra", "4751": " And", "4752": "zo", "4753": "vak", "4754": "ugd", "4755": "rastructuur", "4756": "oens", "4757": "machine", "4758": "meth", "4759": "look", "4760": "leet", "4761": "ai", "4762": "Ont", "4763": " voorbere", "4764": " temperatuur", "4765": " risks", "4766": " partners", "4767": " opin", "4768": " ondersteunen", "4769": " meis", "4770": " karak", "4771": " kept", "4772": " inkomen", "4773": " aanra", "4774": "zetten", "4775": "waarde", "4776": "richt", "4777": "kk", "4778": "istratie", "4779": "issen", "4780": "formatie", "4781": "arge", "4782": "apport", "4783": " therapy", "4784": " symb", "4785": " stealing", "4786": " quickly", "4787": " populair", "4788": " personeel", "4789": " object", "4790": " mutual", "4791": " maintaining", "4792": " leaves", "4793": " les", "4794": " ingredi\u00c3\u00abnten", "4795": " indien", "4796": " incident", "4797": " gericht", "4798": " geest", "4799": " ervaringen", "4800": " continue", "4801": " consument", "4802": " advis", "4803": " Part", "4804": " Heb", "4805": " Europa", "4806": " Ex", "4807": " Amerikaanse", "4808": " ,", "4809": "wink", "4810": "uurd", "4811": "po", "4812": "oppen", "4813": "olie", "4814": "gende", "4815": "Ben", "4816": " vertelt", "4817": " veilige", "4818": " tax", "4819": " serie", "4820": " mogelijke", "4821": " hoogwaardige", "4822": " ha", "4823": " engage", "4824": " distance", "4825": " concert", "4826": " betrek", "4827": " Sc", "4828": "verl", "4829": "pe", "4830": "mal", "4831": "ducten", "4832": "andy", "4833": "abele", "4834": "16", "4835": " vraagt", "4836": " vocht", "4837": " violating", "4838": " vaardigheden", "4839": " unw", "4840": " uitzicht", "4841": " uitz", "4842": " toepassing", "4843": " save", "4844": " road", "4845": " resorting", "4846": " receiving", "4847": " optimaal", "4848": " ontwikkeld", "4849": " letter", "4850": " kat", "4851": " kast", "4852": " hab", "4853": " gebeurt", "4854": " function", "4855": " daarvan", "4856": "reef", "4857": "ping", "4858": "oordat", "4859": "inen", "4860": "ences", "4861": "arry", "4862": "azen", "4863": " ped", "4864": " honesty", "4865": " gezet", "4866": " fijne", "4867": " disliking", "4868": " disrupt", "4869": " choose", "4870": " bureau", "4871": " bond", "4872": "weer", "4873": "itch", "4874": "ield", "4875": "bon", "4876": " zom", "4877": " witte", "4878": " werking", "4879": " woman", "4880": " voorbij", "4881": " seizoen", "4882": " religious", "4883": " process", "4884": " opnemen", "4885": " hurtful", "4886": " groeien", "4887": " expressed", "4888": " doelen", "4889": " broke", "4890": " better", "4891": " abandoned", "4892": " Jim", "4893": " Bob", "4894": " Bo", "4895": "pre", "4896": "emd", "4897": " verhalen", "4898": " trap", "4899": " stroom", "4900": " political", "4901": " overwhel", "4902": " neem", "4903": " minim", "4904": " mond", "4905": " meld", "4906": " groceries", "4907": " fruit", "4908": " document", "4909": " calls", "4910": " bleek", "4911": " automatisch", "4912": " Under", "4913": " Phil", "4914": " My", "4915": " ir", "4916": " +", "4917": "stad", "4918": "ointment", "4919": "mod", "4920": "indt", "4921": "for", "4922": "ander", "4923": " versie", "4924": " veroorz", "4925": " uitstekende", "4926": " though", "4927": " turn", "4928": " stab", "4929": " spins", "4930": " pad", "4931": " moeder", "4932": " lag", "4933": " kamer", "4934": " ignoring", "4935": " hiervoor", "4936": " guid", "4937": " draagt", "4938": " dorp", "4939": " danger", "4940": " afspraak", "4941": "zus", "4942": "ym", "4943": "wekk", "4944": "ugustus", "4945": "schrift", "4946": "lying", "4947": "illing", "4948": "euren", "4949": "14", "4950": " vrijwilligers", "4951": " vervangen", "4952": " veren", "4953": " uitgebreid", "4954": " uiteraard", "4955": " safe", "4956": " pijn", "4957": " line", "4958": " hypotheek", "4959": " homework", "4960": " gedurende", "4961": " effici\u00c3\u00abnt", "4962": " div", "4963": " candid", "4964": " architect", "4965": " aud", "4966": " Reg", "4967": " Net", "4968": "raagd", "4969": "kaart", "4970": "iend", "4971": "erences", "4972": "ancy", "4973": "amed", "4974": " verwijderen", "4975": " verminderen", "4976": " schrijven", "4977": " rein", "4978": " princip", "4979": " pressure", "4980": " optim", "4981": " opgenomen", "4982": " match", "4983": " juli", "4984": " insch", "4985": " hair", "4986": " effectief", "4987": " deur", "4988": " career", "4989": " bra", "4990": " assortiment", "4991": " assign", "4992": " Zw", "4993": " Tot", "4994": "\u00e2\u0080\u00a2", "4995": "vende", "4996": "urrent", "4997": "prof", "4998": "mates", "4999": "gers", "5000": "dra", "5001": "Vol", "5002": "Mijn", "5003": "AT", "5004": " walk", "5005": " vase", "5006": " prep", "5007": " plannen", "5008": " photos", "5009": " pen", "5010": " klachten", "5011": " kent", "5012": " jaarlijk", "5013": " hosp", "5014": " enter", "5015": " donated", "5016": " coun", "5017": " beperkt", "5018": " aankoop", "5019": " Co", "5020": " if", "5021": "zett", "5022": "itten", "5023": "ST", "5024": "Aan", "5025": " zwaar", "5026": " zondag", "5027": " voedings", "5028": " verdienen", "5029": " vij", "5030": " respectful", "5031": " relev", "5032": " rush", "5033": " organiseren", "5034": " komende", "5035": " konden", "5036": " km", "5037": " inde", "5038": " groter", "5039": " fab", "5040": " disab", "5041": " cade", "5042": " bewoners", "5043": " betrouwbare", "5044": " assum", "5045": " Twe", "5046": " Sport", "5047": " Joe", "5048": "zaak", "5049": "yal", "5050": "vloed", "5051": "aseerd", "5052": "anut", "5053": "af\u00c3\u00a9", "5054": " stopped", "5055": " rondom", "5056": " peanut", "5057": " pakken", "5058": " leerlingen", "5059": " loss", "5060": " installed", "5061": " gelukkig", "5062": " decor", "5063": " dub", "5064": " consequences", "5065": " casin", "5066": " Best", "5067": "wassen", "5068": "school", "5069": "iolog", "5070": "Heb", "5071": " voedsel", "5072": " twijf", "5073": " sluiten", "5074": " slots", "5075": " retal", "5076": " regen", "5077": " plans", "5078": " pati\u00c3\u00abnt", "5079": " kra", "5080": " kiest", "5081": " fris", "5082": " doesn", "5083": " augustus", "5084": " esc", "5085": "ram", "5086": "ror", "5087": "plant", "5088": "owed", "5089": "ona", "5090": "ole", "5091": "estival", "5092": "boek", "5093": "autom", "5094": "Veel", "5095": "Best", "5096": " zag", "5097": " verbonden", "5098": " prescri", "5099": " overheid", "5100": " opties", "5101": " onderdelen", "5102": " member", "5103": " helping", "5104": " gokkast", "5105": " fysieke", "5106": " deal", "5107": " bully", "5108": " air", "5109": " age", "5110": " Verder", "5111": "ynam", "5112": "stijl", "5113": "programma", "5114": "ournal", "5115": " words", "5116": " ult", "5117": " tab", "5118": " started", "5119": " spent", "5120": " lijn", "5121": " kilom", "5122": " inzetten", "5123": " elektrische", "5124": " ec", "5125": " discussing", "5126": " deed", "5127": " calling", "5128": " besliss", "5129": " behoeften", "5130": " Zelf", "5131": " Paul", "5132": " Online", "5133": " Den", "5134": "rukt", "5135": "rijke", "5136": "pathy", "5137": "ontrole", "5138": "naam", "5139": "lose", "5140": "kere", "5141": "isme", "5142": "angering", "5143": "Naast", "5144": " you", "5145": " vlak", "5146": " verbinding", "5147": " sneak", "5148": " oper", "5149": " metho", "5150": " listened", "5151": " important", "5152": " grotere", "5153": " gekomen", "5154": " fantast", "5155": " endangering", "5156": " donate", "5157": " daarvoor", "5158": " coaching", "5159": " challen", "5160": " bedoeld", "5161": " aspect", "5162": " answers", "5163": " affair", "5164": " aandelen", "5165": " Toch", "5166": " TV", "5167": " Ital", "5168": " Dr", "5169": "vens", "5170": "vement", "5171": "urf", "5172": "stellingen", "5173": "roll", "5174": "kel", "5175": "iciteit", "5176": "iast", "5177": "gericht", "5178": "clusie", "5179": "besch", "5180": "Sch", "5181": " way", "5182": " tit", "5183": " property", "5184": " overeenkomst", "5185": " lees", "5186": " interf", "5187": " herself", "5188": " gezonde", "5189": " gezicht", "5190": " fake", "5191": " disappro", "5192": " different", "5193": " continues", "5194": " black", "5195": " balans", "5196": " addiction", "5197": " academ", "5198": " Pr", "5199": " Naast", "5200": " Jezus", "5201": " Geen", "5202": " 2014", "5203": "wagen", "5204": "voegd", "5205": "straat", "5206": "opping", "5207": "oker", "5208": "ieuze", "5209": "heen", "5210": "ares", "5211": "ape", "5212": "andaag", "5213": "amper", "5214": " versterken", "5215": " transport", "5216": " sprake", "5217": " scher", "5218": " reag", "5219": " racist", "5220": " normaal", "5221": " gezellige", "5222": " gambl", "5223": " employees", "5224": " dom", "5225": " combineren", "5226": " bestelling", "5227": " Raad", "5228": "ughed", "5229": "ually", "5230": "son", "5231": "ri\u00c3\u00a8", "5232": "oth", "5233": "mede", "5234": "leving", "5235": "i\u00c3\u00abren", "5236": "ionele", "5237": "beleid", "5238": "PN", "5239": " voel", "5240": " trots", "5241": " leger", "5242": " lastig", "5243": " laughed", "5244": " kerst", "5245": " intimate", "5246": " gevolgen", "5247": " drank", "5248": " crush", "5249": " bijdragen", "5250": " bescherming", "5251": " bericht", "5252": " advice", "5253": " Wer", "5254": " Ga", "5255": " Comp", "5256": "yse", "5257": "xic", "5258": "plaatsen", "5259": "osed", "5260": "lem", "5261": "anse", "5262": "CT", "5263": "25", "5264": " vrijdag", "5265": " vergroten", "5266": " tells", "5267": " spend", "5268": " simpel", "5269": " planten", "5270": " ontspannen", "5271": " noodzak", "5272": " nab", "5273": " marriage", "5274": " law", "5275": " karakter", "5276": " helft", "5277": " hoor", "5278": " daardoor", "5279": " ca", "5280": " bio", "5281": " Eng", "5282": " Duits", "5283": "\u00c3\u00abl", "5284": "roe", "5285": "ppl", "5286": "leding", "5287": "loss", "5288": "cle", "5289": "ature", "5290": "anelen", "5291": " zaterdag", "5292": " toy", "5293": " strict", "5294": " stor", "5295": " served", "5296": " same", "5297": " planning", "5298": " muse", "5299": " lam", "5300": " kwamen", "5301": " ket", "5302": " ja", "5303": " dood", "5304": " dest", "5305": " change", "5306": " bereik", "5307": " behouden", "5308": " bos", "5309": " aanbe", "5310": " uren", "5311": "woners", "5312": "wijk", "5313": "vendien", "5314": "uine", "5315": "rale", "5316": "omgeving", "5317": "loze", "5318": "load", "5319": "kingen", "5320": "jarige", "5321": "gestelde", "5322": "Hier", "5323": " zacht", "5324": " voeding", "5325": " veranderen", "5326": " technische", "5327": " tonen", "5328": " rapport", "5329": " ouder", "5330": " initial", "5331": " idee\u00c3\u00abn", "5332": " helder", "5333": " gewicht", "5334": " gebeuren", "5335": " exclud", "5336": " disturb", "5337": " dagelijkse", "5338": " bovendien", "5339": " behulp", "5340": " afge", "5341": " Gebruik", "5342": " Ed", "5343": " 2017", "5344": "wereld", "5345": "sport", "5346": "richting", "5347": "quit", "5348": "ooi", "5349": "oeding", "5350": "kers", "5351": "etes", "5352": "esten", "5353": "IJ", "5354": "ED", "5355": " winn", "5356": " vet", "5357": " uitdagingen", "5358": " scherm", "5359": " ridicul", "5360": " ren", "5361": " print", "5362": " outside", "5363": " opdrachtgever", "5364": " leidt", "5365": " immers", "5366": " has", "5367": " gevonden", "5368": " gebaseerd", "5369": " febru", "5370": " find", "5371": " adres", "5372": " achtergrond", "5373": " aansluit", "5374": " Jap", "5375": " Bar", "5376": " Ant", "5377": " [", "5378": " $", "5379": "zie", "5380": "rument", "5381": "ructie", "5382": "ources", "5383": "oemde", "5384": "ijnt", "5385": "eral", "5386": "elk", "5387": "bum", "5388": "adering", "5389": "adv", "5390": " zat", "5391": " verkl", "5392": " trad", "5393": " threaten", "5394": " termin", "5395": " scala", "5396": " qualific", "5397": " opz", "5398": " ongel", "5399": " nauwkeur", "5400": " levert", "5401": " investering", "5402": " interrupt", "5403": " gesteld", "5404": " februari", "5405": " cris", "5406": " categorie", "5407": " belittled", "5408": " around", "5409": " appro", "5410": " Max", "5411": " Inst", "5412": "vloer", "5413": "sluiten", "5414": "plek", "5415": "orme", "5416": "ontact", "5417": "oeder", "5418": "grond", "5419": "go", "5420": "erend", "5421": "amers", "5422": "alle", "5423": " zorgvuld", "5424": " walking", "5425": " voordeel", "5426": " verhuur", "5427": " verpak", "5428": " vaste", "5429": " tip", "5430": " supplement", "5431": " suppl", "5432": " sturen", "5433": " resear", "5434": " pati\u00c3\u00abnten", "5435": " mal", "5436": " financially", "5437": " ernst", "5438": " derg", "5439": " bekende", "5440": " bem", "5441": " Toen", "5442": "visie", "5443": "iam", "5444": "gnoring", "5445": "gbaar", "5446": "egn", "5447": "atuurlijk", "5448": "Meer", "5449": "Is", "5450": "ID", "5451": " visie", "5452": " verzoek", "5453": " stray", "5454": " story", "5455": " refusing", "5456": " priv\u00c3\u00a9", "5457": " pregn", "5458": " oorsp", "5459": " listens", "5460": " keuzes", "5461": " hospital", "5462": " geweldig", "5463": " garand", "5464": " compliment", "5465": " current", "5466": " bereid", "5467": " anyone", "5468": " afspraken", "5469": " adem", "5470": " Ignoring", "5471": " Dave", "5472": "olland", "5473": "oensdag", "5474": "legger", "5475": "idel", "5476": "gekomen", "5477": "eper", "5478": "comp", "5479": "asse", "5480": "ants", "5481": "IT", "5482": " zieken", "5483": " watching", "5484": " vrije", "5485": " volwassen", "5486": " verhogen", "5487": " uncomfort", "5488": " transpar", "5489": " tegelijk", "5490": " strong", "5491": " safely", "5492": " sent", "5493": " sell", "5494": " refuses", "5495": " racial", "5496": " pand", "5497": " ondernemers", "5498": " obs", "5499": " neighborhood", "5500": " needed", "5501": " maximale", "5502": " koffie", "5503": " individu", "5504": " dish", "5505": " cultuur", "5506": " betra", "5507": " bestellen", "5508": " berg", "5509": " afval", "5510": " Mary", "5511": " Mart", "5512": " 60", "5513": " 2018", "5514": " \u00c3", "5515": " \u00c2", "5516": "urk", "5517": "toe", "5518": "spraak", "5519": "sit", "5520": "ones", "5521": "itude", "5522": "genen", "5523": "gevers", "5524": "ffende", "5525": "elly", "5526": "arden", "5527": "aptop", "5528": "17", "5529": " zwemb", "5530": " vitam", "5531": " versl", "5532": " tent", "5533": " plekken", "5534": " overwhelmed", "5535": " overeen", "5536": " onderneming", "5537": " offers", "5538": " levend", "5539": " inherit", "5540": " ideale", "5541": " heavy", "5542": " gerust", "5543": " exploiting", "5544": " equal", "5545": " eerlijk", "5546": " consult", "5547": " col", "5548": " betaald", "5549": " avontuur", "5550": " absol", "5551": " Vo", "5552": " quit", "5553": "verz", "5554": "utel", "5555": "ronde", "5556": "oemen", "5557": "itted", "5558": "itaily", "5559": "hout", "5560": "Art", "5561": " vaker", "5562": " uphold", "5563": " uncomfortable", "5564": " students", "5565": " qualifications", "5566": " maatregelen", "5567": " inno", "5568": " houten", "5569": " herinner", "5570": " happ", "5571": " evenementen", "5572": " concurr", "5573": " beschermen", "5574": " badkamer", "5575": " agenda", "5576": " Maak", "5577": " Ind", "5578": "ughter", "5579": "rage", "5580": "ps", "5581": "ogn", "5582": "izes", "5583": "ikelen", "5584": "icentie", "5585": "hoven", "5586": "ertijd", "5587": "ekering", "5588": "Le", "5589": " zult", "5590": " werkgever", "5591": " wis", "5592": " vooruit", "5593": " respected", "5594": " mm", "5595": " liefst", "5596": " knowingly", "5597": " kaarten", "5598": " integrity", "5599": " ignores", "5600": " gewenste", "5601": " gewerkt", "5602": " arri", "5603": " Play", "5604": " Meer", "5605": "zel", "5606": "verm", "5607": "ught", "5608": "systeem", "5609": "past", "5610": "night", "5611": "machines", "5612": "irus", "5613": "ieuwd", "5614": "idingen", "5615": "bren", "5616": "amb", "5617": " voelde", "5618": " uitvoering", "5619": " steun", "5620": " smart", "5621": " siblings", "5622": " schak", "5623": " rules", "5624": " praktische", "5625": " nod", "5626": " maintained", "5627": " laptop", "5628": " kr", "5629": " kou", "5630": " issues", "5631": " inzichten", "5632": " herstel", "5633": " grow", "5634": " gekregen", "5635": " goss", "5636": " fr", "5637": " droog", "5638": " disabled", "5639": " desig", "5640": " compleet", "5641": " comments", "5642": " claimed", "5643": " besparen", "5644": " belong", "5645": " bull", "5646": " Noord", "5647": " Black", "5648": " :", "5649": "yed", "5650": "una", "5651": "tussen", "5652": "sm", "5653": "ption", "5654": "ocked", "5655": "isschien", "5656": "groepen", "5657": "ense", "5658": "dienst", "5659": "dus", "5660": "blad", "5661": "atieven", "5662": "'d", "5663": " toevoegen", "5664": " rechts", "5665": " nag", "5666": " loving", "5667": " leiding", "5668": " gossip", "5669": " give", "5670": " flir", "5671": " favoriete", "5672": " early", "5673": " custom", "5674": " chores", "5675": " benad", "5676": " belasting", "5677": " aggress", "5678": " Ol", "5679": "yber", "5680": "resent", "5681": "ott", "5682": "osit", "5683": "onderdag", "5684": "missie", "5685": "ery", "5686": "coming", "5687": "CO", "5688": "Bel", "5689": " wiss", "5690": " vergeten", "5691": " verrass", "5692": " supplies", "5693": " schilder", "5694": " soep", "5695": " retur", "5696": " pens", "5697": " lack", "5698": " jongeren", "5699": " hogere", "5700": " hobb", "5701": " genuine", "5702": " geleverd", "5703": " gaming", "5704": " daughter", "5705": " confess", "5706": " appart", "5707": " abus", "5708": " Me", "5709": " Lees", "5710": "ypt", "5711": "wijz", "5712": "urin", "5713": "technologie", "5714": "pot", "5715": "leur", "5716": "kamp", "5717": "heel", "5718": "hent", "5719": "ekijk", "5720": "box", "5721": "belasting", "5722": "bank", "5723": "auwe", "5724": "DF", "5725": " welkom", "5726": " visiting", "5727": " trekken", "5728": " taken", "5729": " study", "5730": " starten", "5731": " spir", "5732": " remind", "5733": " redenen", "5734": " outf", "5735": " nadat", "5736": " namen", "5737": " loved", "5738": " kal", "5739": " internationale", "5740": " hoef", "5741": " helaas", "5742": " evidence", "5743": " deadline", "5744": " crisis", "5745": " conn", "5746": " autonom", "5747": " apparaat", "5748": " aangeboden", "5749": " Ke", "5750": " Com", "5751": " Bon", "5752": "winkel", "5753": "ude", "5754": "ranged", "5755": "parent", "5756": "lijnen", "5757": "lief", "5758": "jack", "5759": "iseerd", "5760": "erder", "5761": "Samen", "5762": "Alle", "5763": "40", "5764": " zonnep", "5765": " verhoog", "5766": " uitvoeren", "5767": " tools", "5768": " toegankelijk", "5769": " tasks", "5770": " samenleving", "5771": " num", "5772": " momenteel", "5773": " lab", "5774": " jurid", "5775": " getting", "5776": " eisen", "5777": " eil", "5778": " daad", "5779": " behoefte", "5780": " apparaten", "5781": " 23", "5782": "ri\u00c3\u00ab", "5783": "rand", "5784": "ograf", "5785": "mel", "5786": "kenning", "5787": "ights", "5788": "igens", "5789": "geme", "5790": "duur", "5791": "borgen", "5792": "bew", "5793": "aying", "5794": "ana", "5795": "alingen", "5796": "acebook", "5797": "Ja", "5798": "IS", "5799": "CH", "5800": "80", "5801": " veelzijd", "5802": " sta", "5803": " rit", "5804": " richten", "5805": " overal", "5806": " optimale", "5807": " optr", "5808": " leveranc", "5809": " leef", "5810": " liter", "5811": " large", "5812": " krachtige", "5813": " joke", "5814": " investeren", "5815": " hyg", "5816": " gemeenschap", "5817": " gedachten", "5818": " gef", "5819": " guil", "5820": " encourages", "5821": " elect", "5822": " dream", "5823": " comfortabel", "5824": " cher", "5825": " breakup", "5826": " begrip", "5827": " afford", "5828": " Sy", "5829": " Hoewel", "5830": "valu", "5831": "orde", "5832": "ocket", "5833": "kn", "5834": "iks", "5835": "iday", "5836": "iat", "5837": "auto", "5838": "achel", "5839": "----", "5840": " zwem", "5841": " zware", "5842": " zand", "5843": " volle", "5844": " uitzonder", "5845": " suspecting", "5846": " route", "5847": " resources", "5848": " realiseren", "5849": " reactie", "5850": " raden", "5851": " pack", "5852": " opw", "5853": " maandag", "5854": " links", "5855": " kopp", "5856": " insult", "5857": " indep", "5858": " hands", "5859": " honden", "5860": " geluk", "5861": " gaf", "5862": " facing", "5863": " embarrassing", "5864": " collect", "5865": " advances", "5866": "verh", "5867": "vinden", "5868": "ube", "5869": "owledge", "5870": "ments", "5871": "lor", "5872": "lijst", "5873": "ivity", "5874": "inf", "5875": "ichter", "5876": "gemaakt", "5877": "dr", "5878": "beheer", "5879": "anne", "5880": "Tijdens", "5881": "23", "5882": " vlucht", "5883": " verkrijgbaar", "5884": " studenten", "5885": " sports", "5886": " security", "5887": " politie", "5888": " physical", "5889": " opper", "5890": " ontwikkelingen", "5891": " nieuwste", "5892": " muur", "5893": " knowledge", "5894": " klin", "5895": " info", "5896": " gevaar", "5897": " flink", "5898": " explicit", "5899": " ergens", "5900": " effici\u00c3\u00abn", "5901": " doordat", "5902": " dienen", "5903": " dik", "5904": " another", "5905": " abuse", "5906": " Zoals", "5907": " Indien", "5908": " Dankzij", "5909": " \u00e2\u0081", "5910": " lying", "5911": "voet", "5912": "ulier", "5913": "ned", "5914": "ille", "5915": "iking", "5916": "geet", "5917": "afe", "5918": "RA", "5919": " zogen", "5920": " zachte", "5921": " verminder", "5922": " vervoer", "5923": " verblijf", "5924": " susp", "5925": " steal", "5926": " prett", "5927": " onderhouden", "5928": " nou", "5929": " niemand", "5930": " leert", "5931": " jealousy", "5932": " inheritance", "5933": " industrie", "5934": " invol", "5935": " hoogste", "5936": " hoek", "5937": " gegaan", "5938": " email", "5939": " customers", "5940": " bonussen", "5941": " bezoeken", "5942": " appreci", "5943": " advert", "5944": " actions", "5945": " Mon", "5946": " Inter", "5947": " Club", "5948": "wijze", "5949": "veilig", "5950": "ortom", "5951": "onstr", "5952": "hebbers", "5953": "ene", "5954": "aarden", "5955": "VC", "5956": "Stap", "5957": "24", "5958": " unn", "5959": " traffic", "5960": " seeing", "5961": " reputation", "5962": " reizen", "5963": " promoting", "5964": " pocket", "5965": " pets", "5966": " onaf", "5967": " noodzakelijk", "5968": " museum", "5969": " hiervan", "5970": " gezegd", "5971": " gebieden", "5972": " gasten", "5973": " forcefully", "5974": " fearing", "5975": " drinken", "5976": " connect", "5977": " brood", "5978": " beschikt", "5979": " bought", "5980": " apartment", "5981": " affect", "5982": " adult", "5983": " actively", "5984": " Ber", "5985": "zitter", "5986": "werkingen", "5987": "verg", "5988": "trecht", "5989": "ronische", "5990": "oede", "5991": "maak", "5992": "insdag", "5993": "ielen", "5994": "ffee", "5995": "ationaal", "5996": "appar", "5997": "IE", "5998": "Bet", "5999": "Besch", "6000": " welk", "6001": " wacht", "6002": " verdw", "6003": " straat", "6004": " status", "6005": " strijd", "6006": " spreken", "6007": " rustig", "6008": " quest", "6009": " passie", "6010": " opening", "6011": " neglecting", "6012": " kilometer", "6013": " item", "6014": " informed", "6015": " grocery", "6016": " gesloten", "6017": " forced", "6018": " exclus", "6019": " eenvoudige", "6020": " defin", "6021": " coffee", "6022": " algemene", "6023": " address", "6024": " Super", "6025": " Med", "6026": " Eind", "6027": " EU", "6028": " 2015", "6029": "ution", "6030": "stukken", "6031": "sec", "6032": "orten", "6033": "ontwikk", "6034": "ologische", "6035": "nummer", "6036": "elaars", "6037": "ductie", "6038": "dagen", "6039": "ara", "6040": "MP", "6041": "Con", "6042": "13", "6043": " zul", "6044": " workshop", "6045": " werknemers", "6046": " vorige", "6047": " voorkeur", "6048": " selectie", "6049": " provide", "6050": " onderhand", "6051": " nabij", "6052": " myself", "6053": " locaties", "6054": " kern", "6055": " keren", "6056": " jok", "6057": " injured", "6058": " improve", "6059": " historische", "6060": " hieronder", "6061": " gerechten", "6062": " gebruiks", "6063": " dynam", "6064": " contribut", "6065": " chem", "6066": " cross", "6067": " boost", "6068": " betrekking", "6069": " behind", "6070": " autonomy", "6071": " abru", "6072": " Volgens", "6073": " Vanaf", "6074": " Brit", "6075": " Bill", "6076": "verk", "6077": "une", "6078": "uinely", "6079": "rows", "6080": "rekken", "6081": "read", "6082": "ra\u00c3\u00abl", "6083": "oires", "6084": "nog", "6085": "loeren", "6086": "igar", "6087": "gevende", "6088": "eslagen", "6089": "bele", "6090": "akker", "6091": "achtige", "6092": "Te", "6093": "2024", "6094": " zaak", "6095": " young", "6096": " vulner", "6097": " verbeter", "6098": " vre", "6099": " totale", "6100": " tro", "6101": " spite", "6102": " services", "6103": " roulette", "6104": " pod", "6105": " olie", "6106": " hoeveelheid", "6107": " genuinely", "6108": " gingen", "6109": " enorme", "6110": " dochter", "6111": " dans", "6112": " centraal", "6113": " bespreken", "6114": " burn", "6115": " attra", "6116": " assistance", "6117": " annoy", "6118": " Vitaily", "6119": " Pat", "6120": " Kies", "6121": "\u00c3\u00a9l", "6122": "\u00c3\u00bc", "6123": "win", "6124": "ulaire", "6125": "tw", "6126": "opend", "6127": "niet", "6128": "loopt", "6129": "evens", "6130": "blemen", "6131": "begaaf", "6132": "akt", "6133": " werknemer", "6134": " responsibilities", "6135": " provinc", "6136": " neglected", "6137": " momenten", "6138": " modellen", "6139": " libr", "6140": " kwart", "6141": " kab", "6142": " interesse", "6143": " handige", "6144": " fall", "6145": " demanded", "6146": " daily", "6147": " dacht", "6148": " chat", "6149": " brief", "6150": " bereikt", "6151": " afg", "6152": " abruptly", "6153": " YouT", "6154": " Sim", "6155": " Cent", "6156": " 2016", "6157": "\u00c3\u00afn", "6158": "veiliging", "6159": "sector", "6160": "romen", "6161": "rassen", "6162": "oved", "6163": "orn", "6164": "oge", "6165": "mark", "6166": "kap", "6167": "ippen", "6168": "gezet", "6169": "erc", "6170": "eleverd", "6171": "ecess", "6172": "bod", "6173": "atures", "6174": "alisatie", "6175": " zichtbaar", "6176": " working", "6177": " vermeld", "6178": " unnecess", "6179": " thought", "6180": " tact", "6181": " stoffen", "6182": " storm", "6183": " resol", "6184": " resent", "6185": " put", "6186": " overst", "6187": " ontwerpen", "6188": " ontbij", "6189": " living", "6190": " kregen", "6191": " history", "6192": " gang", "6193": " forgot", "6194": " etc", "6195": " eleg", "6196": " diagn", "6197": " dangerous", "6198": " begeleid", "6199": " angst", "6200": " advocaat", "6201": " aanvragen", "6202": " aandeel", "6203": " Aut", "6204": " urg", "6205": "ronen", "6206": "rakt", "6207": "rest", "6208": "oning", "6209": "nij", "6210": "kwaliteit", "6211": "ijfers", "6212": "huizen", "6213": "fil", "6214": "dd", "6215": "bos", "6216": "Ze", "6217": "Pl", "6218": " woensdag", "6219": " wens", "6220": " voorraad", "6221": " vio", "6222": " underage", "6223": " takes", "6224": " spanning", "6225": " schad", "6226": " responsibly", "6227": " remained", "6228": " ride", "6229": " professionals", "6230": " noemen", "6231": " mocking", "6232": " medewerker", "6233": " maal", "6234": " mem", "6235": " liever", "6236": " koelkast", "6237": " kijkt", "6238": " jeugd", "6239": " interessant", "6240": " implement", "6241": " honder", "6242": " gespecial", "6243": " expecting", "6244": " eigenaar", "6245": " cruciaal", "6246": " close", "6247": " borrowed", "6248": " Ons", "6249": " Isra\u00c3\u00abl", "6250": " Elke", "6251": " App", "6252": "wat", "6253": "voorwaarden", "6254": "uff", "6255": "ucc", "6256": "rans", "6257": "ooien", "6258": "olpen", "6259": "like", "6260": "komende", "6261": "ides", "6262": "ensive", "6263": "bouwen", "6264": "aderen", "6265": " zonnepanelen", "6266": " zoon", "6267": " voorsp", "6268": " voegen", "6269": " verantwoordelijkheid", "6270": " upon", "6271": " toon", "6272": " systemen", "6273": " small", "6274": " shopping", "6275": " responsibility", "6276": " policy", "6277": " mont", "6278": " luxury", "6279": " kies", "6280": " instrument", "6281": " initiatief", "6282": " hoping", "6283": " funeral", "6284": " fitness", "6285": " feedback", "6286": " elementen", "6287": " deposit", "6288": " candidate", "6289": " blauw", "6290": " authent", "6291": " afbeeld", "6292": " academic", "6293": " Wereld", "6294": " Open", "6295": " Mo", "6296": " Dav", "6297": "verlening", "6298": "ri\u00c3\u00a8re", "6299": "phas", "6300": "otte", "6301": "lof", "6302": "lopen", "6303": "ja", "6304": "ijdt", "6305": "felt", "6306": "ault", "6307": "Ex", "6308": "Bl", "6309": " zakelijke", "6310": " weder", "6311": " verandering", "6312": " toil", "6313": " risking", "6314": " refrain", "6315": " recen", "6316": " papier", "6317": " opport", "6318": " ocht", "6319": " machine", "6320": " macht", "6321": " kwets", "6322": " invite", "6323": " hobby", "6324": " hoort", "6325": " goedk", "6326": " geschreven", "6327": " gelegenheid", "6328": " fantas", "6329": " eventueel", "6330": " emphas", "6331": " donker", "6332": " demonstr", "6333": " cou", "6334": " bloe", "6335": " belongings", "6336": " agreed", "6337": " aanpassen", "6338": " Nederlands", "6339": " Ma", "6340": " Bas", "6341": "zijde", "6342": "ward", "6343": "vriendelijke", "6344": "voel", "6345": "ric", "6346": "place", "6347": "pomp", "6348": "ney", "6349": "ie\u00c3\u00abn", "6350": "hang", "6351": "fer", "6352": "code", "6353": "Artikel", "6354": " wijk", "6355": " wett", "6356": " vader", "6357": " unnecessary", "6358": " smartph", "6359": " skipped", "6360": " rival", "6361": " participate", "6362": " pick", "6363": " opportun", "6364": " oord", "6365": " minimaal", "6366": " meisjes", "6367": " lichte", "6368": " hol", "6369": " gemeent", "6370": " flirt", "6371": " fietsen", "6372": " exploited", "6373": " concentr", "6374": " cur", "6375": " buitenland", "6376": " behoor", "6377": " alsof", "6378": " aarde", "6379": " aanm", "6380": " Opdracht", "6381": " Jer", "6382": " Frustr", "6383": " 80", "6384": "wering", "6385": "wacht", "6386": "utie", "6387": "uche", "6388": "reek", "6389": "onym", "6390": "onnen", "6391": "nings", "6392": "iety", "6393": "idelity", "6394": "iven", "6395": "gebouwd", "6396": "gaande", "6397": "eted", "6398": "elens", "6399": "ekker", "6400": "ctional", "6401": "cel", "6402": "Laat", "6403": "70", "6404": " upholding", "6405": " studie", "6406": " streven", "6407": " sluit", "6408": " sabotage", "6409": " ra", "6410": " mooiste", "6411": " middag", "6412": " mor", "6413": " lage", "6414": " kook", "6415": " iP", "6416": " gezellig", "6417": " fur", "6418": " divor", "6419": " daadwerk", "6420": " cake", "6421": " behoud", "6422": " behe", "6423": " allowing", "6424": " alert", "6425": " Tw", "6426": " Jo", "6427": " Frustrated", "6428": " Binnen", "6429": "zw", "6430": "older", "6431": "olar", "6432": "oging", "6433": "namelijk", "6434": "igendom", "6435": "gie", "6436": "erence", "6437": "ella", "6438": "anceerde", "6439": "anit", "6440": "Nieuw", "6441": " zwembad", "6442": " voertuigen", "6443": " verleden", "6444": " verwerken", "6445": " unique", "6446": " too", "6447": " struggle", "6448": " rollen", "6449": " purch", "6450": " navig", "6451": " mentale", "6452": " mix", "6453": " losing", "6454": " journal", "6455": " insisting", "6456": " grandparent", "6457": " graden", "6458": " giving", "6459": " excessive", "6460": " dislike", "6461": " dergelijke", "6462": " crime", "6463": " code", "6464": " cli\u00c3\u00abnt", "6465": " cit", "6466": " bevorderen", "6467": " beschad", "6468": " beelden", "6469": " ball", "6470": " aanzienlijk", "6471": " Utrecht", "6472": " Rob", "6473": " Midden", "6474": " Haag", "6475": " Gelukkig", "6476": " 27", "6477": " 26", "6478": "wedst", "6479": "usband", "6480": "urele", "6481": "uck", "6482": "scheid", "6483": "rimin", "6484": "repen", "6485": "put", "6486": "medewerk", "6487": "lim", "6488": "let", "6489": "ko", "6490": "itting", "6491": "inger", "6492": "etail", "6493": "elings", "6494": "eech", "6495": "combin", "6496": "ching", "6497": "cr", "6498": "RO", "6499": ",-", "6500": " vroeger", "6501": " volop", "6502": " sympt", "6503": " stukje", "6504": " spl", "6505": " speech", "6506": " slapen", "6507": " situaties", "6508": " praten", "6509": " peaceful", "6510": " pakket", "6511": " outfit", "6512": " onderscheid", "6513": " month", "6514": " mate", "6515": " indrukwekk", "6516": " hoogbegaaf", "6517": " heartfelt", "6518": " gemiddelde", "6519": " factoren", "6520": " designer", "6521": " contain", "6522": " been", "6523": " beantwoord", "6524": " bike", "6525": " ambul", "6526": " Duitsland", "6527": "try", "6528": "othes", "6529": "osing", "6530": "nodig", "6531": "mis", "6532": "kun", "6533": "itief", "6534": "istisch", "6535": "date", "6536": "adres", "6537": "activ", "6538": "365", "6539": " wint", "6540": " verliezen", "6541": " toekomstige", "6542": " tim", "6543": " strak", "6544": " station", "6545": " single", "6546": " sure", "6547": " ruime", "6548": " raken", "6549": " quality", "6550": " preventing", "6551": " offerte", "6552": " much", "6553": " marketing", "6554": " loan", "6555": " kenmerken", "6556": " kick", "6557": " instruct", "6558": " inwoners", "6559": " encouraging", "6560": " employer", "6561": " dek", "6562": " crimin", "6563": " controleren", "6564": " blik", "6565": " betaling", "6566": " bestel", "6567": " besloten", "6568": " anx", "6569": " album", "6570": " Zod", "6571": " Qu", "6572": " New", "6573": " MO", "6574": " Engel", "6575": " Daarna", "6576": " Del", "6577": " Bos", "6578": " Alleen", "6579": " 2013", "6580": "zettend", "6581": "vraag", "6582": "ulden", "6583": "pat", "6584": "mogelijkheden", "6585": "licht", "6586": "jecten", "6587": "itieve", "6588": "ilding", "6589": "geld", "6590": "enties", "6591": "elled", "6592": "egde", "6593": "dering", "6594": "coach", "6595": "boom", "6596": "behoeft", "6597": "Daarnaast", "6598": " weers", "6599": " went", "6600": " uitbet", "6601": " stev", "6602": " speler", "6603": " spullen", "6604": " snelheid", "6605": " reser", "6606": " relatief", "6607": " place", "6608": " opvall", "6609": " onb", "6610": " offensive", "6611": " mocht", "6612": " mening", "6613": " issue", "6614": " isol", "6615": " imm", "6616": " friendly", "6617": " fut", "6618": " explaining", "6619": " elektriciteit", "6620": " creat", "6621": " consider", "6622": " clothes", "6623": " box", "6624": " bijdrage", "6625": " begeleiden", "6626": " bord", "6627": " appointment", "6628": " aldus", "6629": " accused", "6630": " aantrekkelijk", "6631": " ach", "6632": " Wet", "6633": " Ten", "6634": " Gra", "6635": "\u00c2\u00b7", "6636": "week", "6637": "uste", "6638": "rian", "6639": "pir", "6640": "oploss", "6641": "ommod", "6642": "ocatie", "6643": "lig", "6644": "laag", "6645": "keers", "6646": "kerk", "6647": "igr", "6648": "iegel", "6649": "iders", "6650": "erie", "6651": "enzen", "6652": "ekenis", "6653": "comm", "6654": "cedure", "6655": "cing", "6656": "agens", "6657": "aamde", "6658": "ING", "6659": "DE", "6660": "DA", "6661": " zorgvuldig", "6662": " waardevolle", "6663": " verlies", "6664": " vullen", "6665": " therm", "6666": " techniek", "6667": " streng", "6668": " passion", "6669": " onderzoeken", "6670": " onderwerp", "6671": " might", "6672": " like", "6673": " licentie", "6674": " kwij", "6675": " joy", "6676": " gehele", "6677": " georganis", "6678": " frustrated", "6679": " finish", "6680": " fase", "6681": " efforts", "6682": " discreet", "6683": " depression", "6684": " dum", "6685": " client", "6686": " cadeau", "6687": " West", "6688": " Verenigde", "6689": " Hen", "6690": " HR", "6691": " Char", "6692": "\u00c3\u00afnvloed", "6693": "zy", "6694": "year", "6695": "u\u00c3\u00af", "6696": "staan", "6697": "ponent", "6698": "ostering", "6699": "meer", "6700": "leden", "6701": "intage", "6702": "ideo", "6703": "gave", "6704": "chan", "6705": "anny", "6706": " yet", "6707": " yard", "6708": " vrijwel", "6709": " voorkomt", "6710": " vertegenwoord", "6711": " verstandig", "6712": " verkennen", "6713": " veld", "6714": " treatment", "6715": " telling", "6716": " suggested", "6717": " sector", "6718": " rage", "6719": " particul", "6720": " overleg", "6721": " ontzettend", "6722": " nutt", "6723": " nederland", "6724": " moed", "6725": " lager", "6726": " ingezet", "6727": " identity", "6728": " how", "6729": " groepen", "6730": " grens", "6731": " geholpen", "6732": " gebouwd", "6733": " fostering", "6734": " dress", "6735": " dier", "6736": " confident", "6737": " burden", "6738": " boom", "6739": " Peter", "6740": " Int", "6741": "tjes", "6742": "streeks", "6743": "ota", "6744": "maker", "6745": "ived", "6746": "istieke", "6747": "ius", "6748": "edereen", "6749": "bron", "6750": "aza", "6751": "aliseerd", "6752": "acking", "6753": "ao", "6754": "AS", "6755": " winkels", "6756": " verspre", "6757": " then", "6758": " tevens", "6759": " subst", "6760": " revealed", "6761": " positief", "6762": " ontstaat", "6763": " ones", "6764": " ondanks", "6765": " niks", "6766": " minister", "6767": " methode", "6768": " loyal", "6769": " kader", "6770": " honoring", "6771": " herst", "6772": " husband", "6773": " gedeel", "6774": " emphasizing", "6775": " evalu", "6776": " divorce", "6777": " discovered", "6778": " disapp", "6779": " concept", "6780": " communication", "6781": " benieuwd", "6782": " benef", "6783": " begonnen", "6784": " afgest", "6785": " aangegeven", "6786": " Vervolgens", "6787": " Sec", "6788": " Park", "6789": " Heer", "6790": " 28", "6791": "zeg", "6792": "uage", "6793": "ton", "6794": "systemen", "6795": "sprakelijk", "6796": "lees", "6797": "ijm", "6798": "haven", "6799": "gesproken", "6800": "estyle", "6801": "elat", "6802": "din", "6803": "beer", "6804": "PS", "6805": "He", "6806": "45", "6807": " workplace", "6808": " wetenschapp", "6809": " waarden", "6810": " voornamelijk", "6811": " vict", "6812": " uitleg", "6813": " trein", "6814": " treating", "6815": " thoughts", "6816": " tegenwoord", "6817": " tijden", "6818": " tel", "6819": " taak", "6820": " system", "6821": " steden", "6822": " short", "6823": " setting", "6824": " rente", "6825": " posted", "6826": " paid", "6827": " onzeker", "6828": " notice", "6829": " locked", "6830": " liet", "6831": " kust", "6832": " kid", "6833": " ge\u00c3\u00afnt", "6834": " gevoelens", "6835": " gebouwen", "6836": " fight", "6837": " erop", "6838": " eiland", "6839": " duiz", "6840": " disturbing", "6841": " disapproval", "6842": " cooking", "6843": " cheat", "6844": " beleven", "6845": " ask", "6846": " aangepast", "6847": " Ro", "6848": " Kle", "6849": " Gen", "6850": " Facebook", "6851": "weeg", "6852": "sche", "6853": "roep", "6854": "regeling", "6855": "outs", "6856": "orgd", "6857": "oond", "6858": "materiaal", "6859": "life", "6860": "inet", "6861": "iker", "6862": "iale", "6863": "gebouw", "6864": "enken", "6865": "empl", "6866": "eland", "6867": "Nederland", "6868": "EG", "6869": " wedstrijden", "6870": " verdere", "6871": " toegevoegd", "6872": " tur", "6873": " stoppen", "6874": " stijlvolle", "6875": " stolen", "6876": " protest", "6877": " popular", "6878": " partij", "6879": " piz", "6880": " overhearing", "6881": " opponent", "6882": " legal", "6883": " lez", "6884": " koers", "6885": " krit", "6886": " innocent", "6887": " individuele", "6888": " hoeven", "6889": " gesproken", "6890": " gespeeld", "6891": " geloven", "6892": " geleid", "6893": " erbij", "6894": " duidelijke", "6895": " draait", "6896": " desire", "6897": " creatieve", "6898": " cause", "6899": " buying", "6900": " beheer", "6901": " biolog", "6902": " beleid", "6903": " akk", "6904": " Wie", "6905": " Vooral", "6906": " Person", "6907": " Lim", "6908": " Land", "6909": " Jon", "6910": " Bijvoorbeeld", "6911": " 35", "6912": "\u00e2\u0098\u0086\u00e2\u0098\u0086\u00e2\u0098\u0086\u00e2\u0098\u0086", "6913": "\u00e2\u0098\u0086\u00e2\u0098\u0086\u00e2\u0098\u0086\u00e2\u0098\u0086\u00e2\u0098\u0086", "6914": "\u00c3\u00aa", "6915": "teresse", "6916": "rus", "6917": "persoon", "6918": "ooth", "6919": "kings", "6920": "ffect", "6921": "essen", "6922": "ericht", "6923": "apie", "6924": "anche", "6925": "El", "6926": " zomaar", "6927": " welzijn", "6928": " wandelen", "6929": " verkeer", "6930": " vereist", "6931": " unfair", "6932": " una", "6933": " trou", "6934": " touch", "6935": " succesvolle", "6936": " succesvol", "6937": " suic", "6938": " stimuleren", "6939": " slaapkamer", "6940": " resists", "6941": " replaced", "6942": " repar", "6943": " ontvangt", "6944": " oefen", "6945": " negatieve", "6946": " motiv", "6947": " maintains", "6948": " lessen", "6949": " language", "6950": " inspiratie", "6951": " innovatieve", "6952": " infidelity", "6953": " helped", "6954": " healthy", "6955": " geur", "6956": " geopend", "6957": " gather", "6958": " explained", "6959": " ended", "6960": " effecten", "6961": " draaien", "6962": " daarnaast", "6963": " draag", "6964": " donderdag", "6965": " cleaning", "6966": " bloemen", "6967": " be\u00c3\u00afnvloed", "6968": " anonym", "6969": " afle", "6970": " aanbieden", "6971": " Partner", "6972": "\u00c3\u00b6r", "6973": "\u00c3\u00a1", "6974": "\u00c2\u00ae", "6975": "wand", "6976": "venge", "6977": "thing", "6978": "ther", "6979": "stal", "6980": "riet", "6981": "ommige", "6982": "kende", "6983": "iler", "6984": "hoek", "6985": "feest", "6986": "esper", "6987": "eltje", "6988": "bak", "6989": "aint", "6990": "Welke", "6991": "Nu", "6992": "Mar", "6993": "AP", "6994": " ziekte", "6995": " virt", "6996": " titel", "6997": " spending", "6998": " sociaal", "6999": " schoenen", "7000": " positive", "7001": " paard", "7002": " optimaliseren", "7003": " middelen", "7004": " micro", "7005": " lifestyle", "7006": " korting", "7007": " ker", "7008": " kandid", "7009": " hangt", "7010": " gevraagd", "7011": " geho", "7012": " gids", "7013": " functional", "7014": " faith", "7015": " experience", "7016": " death", "7017": " beneden", "7018": " bier", "7019": " artiest", "7020": " affection", "7021": " Ontdek", "7022": " Oost", "7023": " Ken", "7024": " Heijden", "7025": "zaken", "7026": "vriendelijk", "7027": "voering", "7028": "voeren", "7029": "ublic", "7030": "steun", "7031": "schrijving", "7032": "result", "7033": "rechten", "7034": "otor", "7035": "middag", "7036": "merc", "7037": "iring", "7038": "ieg", "7039": "gment", "7040": "fon", "7041": "armen", "7042": "Vraag", "7043": "Hoewel", "7044": "Gebruik", "7045": " verband", "7046": " vintage", "7047": " uitsluit", "7048": " terras", "7049": " tegenwoordig", "7050": " tegenover", "7051": " teams", "7052": " shift", "7053": " selfish", "7054": " schrift", "7055": " revenge", "7056": " radio", "7057": " position", "7058": " pocketed", "7059": " optreden", "7060": " oven", "7061": " luisteren", "7062": " lagere", "7063": " kwijt", "7064": " individual", "7065": " horec", "7066": " hangen", "7067": " haal", "7068": " geregeld", "7069": " gepl", "7070": " flexibel", "7071": " fed", "7072": " duurt", "7073": " dos", "7074": " cond", "7075": " compon", "7076": " choice", "7077": " ambulance", "7078": " amuse", "7079": " absoluut", "7080": " Per", "7081": " Let", "7082": " Jill", "7083": " Jake", "7084": "ushed", "7085": "terne", "7086": "pagina", "7087": "onne", "7088": "mm", "7089": "langs", "7090": "istent", "7091": "ieme", "7092": "ieerd", "7093": "iece", "7094": "class", "7095": "boven", "7096": "Ch", "7097": " zwarte", "7098": " zout", "7099": " wandeling", "7100": " wait", "7101": " voldoet", "7102": " verloren", "7103": " verhuis", "7104": " veranderingen", "7105": " vanzelf", "7106": " uitvoer", "7107": " turned", "7108": " slechte", "7109": " seat", "7110": " side", "7111": " rood", "7112": " ridiculed", "7113": " rand", "7114": " plus", "7115": " pensioen", "7116": " originele", "7117": " ochtend", "7118": " legt", "7119": " lijken", "7120": " lets", "7121": " kunsten", "7122": " intervene", "7123": " innovatie", "7124": " huren", "7125": " hidden", "7126": " gene", "7127": " gemeenten", "7128": " geleerd", "7129": " enough", "7130": " eenmaal", "7131": " education", "7132": " doelgroep", "7133": " coron", "7134": " betrouwbaar", "7135": " betekenis", "7136": " believing", "7137": " artikelen", "7138": " aansch", "7139": " Zonder", "7140": " Luc", "7141": " Bed", "7142": " ronde", "7143": "zik", "7144": "uwe", "7145": "ovatie", "7146": "isie", "7147": "inten", "7148": "idge", "7149": "gene", "7150": "gevoel", "7151": "eerden", "7152": "doende", "7153": "dy", "7154": "bezz", "7155": "anties", "7156": "anned", "7157": "angrijk", "7158": "aats", "7159": "Tot", "7160": "Kl", "7161": "-,", "7162": " zuid", "7163": " window", "7164": " wellicht", "7165": " webshop", "7166": " verwerkt", "7167": " vel", "7168": " toer", "7169": " supervis", "7170": " specifiek", "7171": " rechtstreeks", "7172": " reacties", "7173": " riv", "7174": " promised", "7175": " profiteren", "7176": " poor", "7177": " ontbijt", "7178": " omvat", "7179": " mobiel", "7180": " minst", "7181": " lach", "7182": " keeping", "7183": " intentions", "7184": " ingesch", "7185": " gezamen", "7186": " gambling", "7187": " ene", "7188": " embezz", "7189": " effectieve", "7190": " ey", "7191": " eigendom", "7192": " eat", "7193": " damage", "7194": " confidential", "7195": " classmates", "7196": " city", "7197": " boot", "7198": " betaalt", "7199": " betekenen", "7200": " bill", "7201": " akkoord", "7202": " aanwezigheid", "7203": " YouTube", "7204": " Terwijl", "7205": " Soms", "7206": " Pe", "7207": " David", "7208": "waardig", "7209": "voorzien", "7210": "venience", "7211": "vragen", "7212": "the", "7213": "resh", "7214": "reis", "7215": "richten", "7216": "plo", "7217": "oofd", "7218": "mother", "7219": "loot", "7220": "lam", "7221": "kort", "7222": "ided", "7223": "gelegen", "7224": "ever", "7225": "centen", "7226": "broek", "7227": "bestend", "7228": "bur", "7229": "bied", "7230": "attended", "7231": "arded", "7232": "antha", "7233": "acks", "7234": "achtig", "7235": "aans", "7236": "UR", "7237": "Niet", "7238": "FT", "7239": "Ad", "7240": "60", "7241": "27", "7242": "07", "7243": " ziekenhuis", "7244": " zeven", "7245": " wishes", "7246": " winning", "7247": " wereldwijd", "7248": " wonder", "7249": " vrijheid", "7250": " verwachting", "7251": " univers", "7252": " unattended", "7253": " trend", "7254": " ouderen", "7255": " missing", "7256": " massage", "7257": " morgen", "7258": " landbouw", "7259": " lies", "7260": " koken", "7261": " juridische", "7262": " grat", "7263": " gun", "7264": " gender", "7265": " gaten", "7266": " fig", "7267": " exhaustion", "7268": " damaged", "7269": " dw", "7270": " commiss", "7271": " borst", "7272": " beaut", "7273": " base", "7274": " audio", "7275": " antique", "7276": " Verk", "7277": " Vaak", "7278": " Hierbij", "7279": " Beach", "7280": " Beg", "7281": "\u00c3\u00a8me", "7282": "vrouw", "7283": "uise", "7284": "ises", "7285": "igns", "7286": "haald", "7287": "enny", "7288": "elle", "7289": "club", "7290": "check", "7291": "bus", "7292": "ays", "7293": "ankt", "7294": "aciteit", "7295": "aagd", "7296": "95", "7297": " zogenaamde", "7298": " websites", "7299": " wheel", "7300": " wen", "7301": " verschillen", "7302": " verkocht", "7303": " verle", "7304": " vog", "7305": " toilet", "7306": " tour", "7307": " terrein", "7308": " stevig", "7309": " simp", "7310": " schuld", "7311": " sin", "7312": " rare", "7313": " produc", "7314": " prem", "7315": " paper", "7316": " overigens", "7317": " omhoog", "7318": " moving", "7319": " makkelijker", "7320": " langdur", "7321": " label", "7322": " knop", "7323": " gemiddeld", "7324": " garantie", "7325": " excluded", "7326": " empathy", "7327": " eating", "7328": " drove", "7329": " documenten", "7330": " disrespecting", "7331": " diab", "7332": " craving", "7333": " choices", "7334": " coc", "7335": " bevindt", "7336": " babysitter", "7337": " accus", "7338": " Konink", "7339": " Kan", "7340": " Can", "7341": " \u00f0\u009f", "7342": "wijde", "7343": "weging", "7344": "veiligings", "7345": "regels", "7346": "pected", "7347": "law", "7348": "iteindelijk", "7349": "itive", "7350": "isatie", "7351": "infrastructuur", "7352": "informatie", "7353": "hem", "7354": "gemeester", "7355": "ersoon", "7356": "derdaad", "7357": "avanceerde", "7358": "ammer", "7359": "aardoor", "7360": "Maak", "7361": "IP", "7362": "BO", "7363": "!\"", "7364": " \u00e2\u0080\u00a6", "7365": " waarvoor", "7366": " wished", "7367": " vrijblij", "7368": " voorbeelden", "7369": " verlichting", "7370": " verlaging", "7371": " verse", "7372": " value", "7373": " unaware", "7374": " uitger", "7375": " trusted", "7376": " teenager", "7377": " snoop", "7378": " sched", "7379": " pretending", "7380": " power", "7381": " koud", "7382": " jack", "7383": " guest", "7384": " gebeurten", "7385": " gepro", "7386": " garanderen", "7387": " finale", "7388": " foot", "7389": " evenement", "7390": " enthousiast", "7391": " endanger", "7392": " disrespect", "7393": " discreetly", "7394": " critical", "7395": " comfortabele", "7396": " citing", "7397": " bullied", "7398": " bijstand", "7399": " bezit", "7400": " behalen", "7401": " asks", "7402": " animals", "7403": " adviseren", "7404": " aanbiedingen", "7405": " Vanuit", "7406": " Samantha", "7407": " ST", "7408": " Res", "7409": " Mil", "7410": " La", "7411": " Jeff", "7412": " Instead", "7413": " Eg", "7414": " Duitse", "7415": " 90", "7416": "zoeken", "7417": "zijds", "7418": "zaamheid", "7419": "vrije", "7420": "ters", "7421": "schuw", "7422": "schade", "7423": "oorn", "7424": "methode", "7425": "ini", "7426": "centage", "7427": "cul", "7428": "blig", "7429": "atiek", "7430": "ases", "7431": "aker", "7432": "200", "7433": "**", "7434": " vormt", "7435": " violent", "7436": " verkeers", "7437": " verj", "7438": " tentoon", "7439": " tall", "7440": " sleutel", "7441": " serious", "7442": " retali", "7443": " respond", "7444": " regard", "7445": " run", "7446": " providing", "7447": " program", "7448": " practices", "7449": " pedest", "7450": " pian", "7451": " meubels", "7452": " levering", "7453": " jokes", "7454": " joining", "7455": " interne", "7456": " indust", "7457": " hoogbegaafd", "7458": " gratitude", "7459": " grades", "7460": " goedkoop", "7461": " guise", "7462": " factuur", "7463": " expect", "7464": " exhausted", "7465": " erin", "7466": " doll", "7467": " chocol", "7468": " centrale", "7469": " calorie", "7470": " bevatten", "7471": " attraction", "7472": " apologized", "7473": " allen", "7474": " abusive", "7475": " Vandaag", "7476": " Top", "7477": " Haar", "7478": " DE", "7479": "zaal", "7480": "vertr", "7481": "tense", "7482": "oordelen", "7483": "malige", "7484": "lift", "7485": "iti", "7486": "ingo", "7487": "industrie", "7488": "iling", "7489": "heb", "7490": "functie", "7491": "endeel", "7492": "eltjes", "7493": "astic", "7494": "asis", "7495": "anced", "7496": "aliseerde", "7497": "Zoals", "7498": "The", "7499": "Of", "7500": "35", "7501": " your", "7502": " where", "7503": " uitstekend", "7504": " trash", "7505": " toestemming", "7506": " thee", "7507": " supplementen", "7508": " sterren", "7509": " structuur", "7510": " scholen", "7511": " seks", "7512": " react", "7513": " pretended", "7514": " plea", "7515": " openbare", "7516": " occ", "7517": " moved", "7518": " meals", "7519": " herstellen", "7520": " habit", "7521": " hur", "7522": " hid", "7523": " guilty", "7524": " guests", "7525": " glazen", "7526": " gezondheids", "7527": " gre", "7528": " evenals", "7529": " consumenten", "7530": " confron", "7531": " coup", "7532": " coll", "7533": " beurs", "7534": " background", "7535": " actieve", "7536": " accommod", "7537": " aansprakelijk", "7538": " Opdrachtgever", "7539": " IT", "7540": " Des", "7541": " Cor", "7542": "\u00c3\u00b6rdin", "7543": "ziens", "7544": "wijzen", "7545": "ruid", "7546": "root", "7547": "rekening", "7548": "osh", "7549": "niveau", "7550": "loom", "7551": "lag", "7552": "la", "7553": "keu", "7554": "iteraard", "7555": "isse", "7556": "iaanse", "7557": "erved", "7558": "ega", "7559": "cene", "7560": "bu", "7561": "ashed", "7562": "anch", "7563": "Bed", "7564": " vorig", "7565": " vitamine", "7566": " violen", "7567": " verwachtingen", "7568": " veget", "7569": " vuil", "7570": " toevoeg", "7571": " tom", "7572": " suff", "7573": " subs", "7574": " steals", "7575": " spier", "7576": " smartphone", "7577": " slimme", "7578": " shares", "7579": " schulden", "7580": " score", "7581": " risk", "7582": " regardless", "7583": " running", "7584": " professioneel", "7585": " praktisch", "7586": " persistently", "7587": " orde", "7588": " opvang", "7589": " ontspanning", "7590": " next", "7591": " memb", "7592": " mand", "7593": " laadpunten", "7594": " klassiek", "7595": " judgment", "7596": " ingest", "7597": " gevest", "7598": " entertain", "7599": " droom", "7600": " display", "7601": " dre", "7602": " dames", "7603": " behoorlijk", "7604": " batter", "7605": " apparatuur", "7606": " activiteit", "7607": " Will", "7608": " Tweede", "7609": " Soc", "7610": " Sinds", "7611": " Leiden", "7612": " Kamer", "7613": " Frankrijk", "7614": " Don", "7615": " Bur", "7616": " 500", "7617": "\u00c3\u00b3\u00c3\u00b3", "7618": "verzorg", "7619": "verw", "7620": "vere", "7621": "vious", "7622": "vaard", "7623": "ussel", "7624": "urance", "7625": "stander", "7626": "rab", "7627": "pakt", "7628": "ossen", "7629": "ontwikkeling", "7630": "merkt", "7631": "mes", "7632": "last", "7633": "itchen", "7634": "istiek", "7635": "ison", "7636": "illa", "7637": "iez", "7638": "held", "7639": "eke", "7640": "ector", "7641": "eurs", "7642": "eed", "7643": "dic", "7644": "contract", "7645": "cor", "7646": "asing", "7647": "aardag", "7648": "aien", "7649": "Wie", "7650": "Kan", "7651": "App", "7652": " woonkamer", "7653": " wasn", "7654": " wort", "7655": " trainingen", "7656": " trends", "7657": " toegest", "7658": " tex", "7659": " ton", "7660": " stukken", "7661": " spr", "7662": " spo", "7663": " schoonheid", "7664": " reminded", "7665": " regelen", "7666": " redelijk", "7667": " price", "7668": " playful", "7669": " oppervlak", "7670": " openen", "7671": " nodige", "7672": " maaltijd", "7673": " influ", "7674": " grenzen", "7675": " going", "7676": " gekocht", "7677": " gebruikte", "7678": " gebrek", "7679": " geboren", "7680": " erf", "7681": " drinking", "7682": " directeur", "7683": " dinsdag", "7684": " cruelly", "7685": " collection", "7686": " buik", "7687": " body", "7688": " belittling", "7689": " beloved", "7690": " aspecten", "7691": " aandoen", "7692": " Sint", "7693": " Misschien", "7694": " Mike", "7695": " Hoog", "7696": " Eindhoven", "7697": "yn", "7698": "rika", "7699": "oi", "7700": "key", "7701": "iw", "7702": "hone", "7703": "gaat", "7704": "eigen", "7705": "breken", "7706": "ades", "7707": "Ter", "7708": " wouldn", "7709": " weddenschappen", "7710": " ware", "7711": " versn", "7712": " verandert", "7713": " vest", "7714": " theater", "7715": " terugk", "7716": " spreekt", "7717": " selfishly", "7718": " reguliere", "7719": " qua", "7720": " provincie", "7721": " prettig", "7722": " photo", "7723": " passende", "7724": " opgebouwd", "7725": " oorspron", "7726": " onderweg", "7727": " ondernemen", "7728": " omzet", "7729": " nature", "7730": " monitor", "7731": " missed", "7732": " leest", "7733": " langere", "7734": " inderdaad", "7735": " illustr", "7736": " hiermee", "7737": " grandmother", "7738": " gespecialiseerd", "7739": " financieel", "7740": " draad", "7741": " douche", "7742": " decline", "7743": " daadwerkelijk", "7744": " commerc", "7745": " childhood", "7746": " casual", "7747": " blad", "7748": " bevol", "7749": " bracht", "7750": " advant", "7751": " aank", "7752": " Stichting", "7753": " Huis", "7754": " Every", "7755": " Britse", "7756": " ic", "7757": "uls", "7758": "uziek", "7759": "stud", "7760": "schoenen", "7761": "rook", "7762": "rim", "7763": "rout", "7764": "rig", "7765": "och", "7766": "makers", "7767": "lopende", "7768": "lecht", "7769": "isa", "7770": "emde", "7771": "brief", "7772": "90", "7773": " wandel", "7774": " will", "7775": " vervang", "7776": " vegan", "7777": " valu", "7778": " voren", "7779": " ticket", "7780": " technieken", "7781": " schreef", "7782": " schaal", "7783": " rustige", "7784": " relationships", "7785": " rechten", "7786": " reageren", "7787": " pursuing", "7788": " pizza", "7789": " parking", "7790": " meubel", "7791": " management", "7792": " master", "7793": " jongens", "7794": " jaarlijks", "7795": " heir", "7796": " hou", "7797": " gradu", "7798": " gereed", "7799": " georganiseerd", "7800": " geavanceerde", "7801": " further", "7802": " flo", "7803": " exerc", "7804": " endangered", "7805": " donation", "7806": " doub", "7807": " discrimin", "7808": " discipl", "7809": " directe", "7810": " creativiteit", "7811": " cookies", "7812": " constructie", "7813": " cashier", "7814": " cv", "7815": " cijfers", "7816": " benodig", "7817": " beleggen", "7818": " behandelen", "7819": " beach", "7820": " Natuurlijk", "7821": " Hiermee", "7822": " Gaza", "7823": " Daarbij", "7824": " 70", "7825": "zend", "7826": "zed", "7827": "wagens", "7828": "verbruik", "7829": "veen", "7830": "uderen", "7831": "term", "7832": "staat", "7833": "ready", "7834": "pas", "7835": "organisaties", "7836": "orge", "7837": "metingen", "7838": "leed", "7839": "indy", "7840": "iot", "7841": "hoe", "7842": "hod", "7843": "etters", "7844": "entje", "7845": "enservice", "7846": "emende", "7847": "egenomen", "7848": "eut", "7849": "apped", "7850": "akkelijk", "7851": "agram", "7852": "ado", "7853": " werkte", "7854": " wealthy", "7855": " waste", "7856": " waiting", "7857": " volwassenen", "7858": " violence", "7859": " vereniging", "7860": " verdiep", "7861": " vuur", "7862": " todd", "7863": " specialist", "7864": " spannende", "7865": " restrict", "7866": " relax", "7867": " received", "7868": " recogn", "7869": " question", "7870": " pressured", "7871": " opting", "7872": " onderstaande", "7873": " onmis", "7874": " library", "7875": " levensduur", "7876": " lead", "7877": " hierdoor", "7878": " gesprekken", "7879": " geg", "7880": " explains", "7881": " eruit", "7882": " dienstverlening", "7883": " depressie", "7884": " deuren", "7885": " crypt", "7886": " competitor", "7887": " cherished", "7888": " carri\u00c3\u00a8re", "7889": " broken", "7890": " blackjack", "7891": " besteden", "7892": " bestand", "7893": " bath", "7894": " ban", "7895": " auteur", "7896": " arts", "7897": " area", "7898": " amusement", "7899": " afwerking", "7900": " Po", "7901": " Lu", "7902": " Kijk", "7903": " Harry", "7904": " Bekijk", "7905": " 31", "7906": "ypto", "7907": "vakantie", "7908": "uurde", "7909": "ukken", "7910": "strateg", "7911": "steen", "7912": "sens", "7913": "raat", "7914": "profess", "7915": "otel", "7916": "ope", "7917": "liggende", "7918": "jo", "7919": "ioenschap", "7920": "hose", "7921": "hof", "7922": "erman", "7923": "emaakt", "7924": "ellig", "7925": "bescherm", "7926": "automaten", "7927": "ald", "7928": "aarde", "7929": "LT", "7930": "Beschrijving", "7931": " yog", "7932": " voorzieningen", "7933": " vloe", "7934": " verzorgen", "7935": " vervolg", "7936": " vernieuw", "7937": " uiterlijk", "7938": " uiteen", "7939": " tegelijkertijd", "7940": " tactfully", "7941": " spons", "7942": " sales", "7943": " returning", "7944": " research", "7945": " relative", "7946": " recept", "7947": " recy", "7948": " reading", "7949": " qualified", "7950": " prefer", "7951": " onverget", "7952": " onmiddel", "7953": " multip", "7954": " mann", "7955": " maatschappij", "7956": " kiss", "7957": " intense", "7958": " inkomsten", "7959": " humor", "7960": " huishouden", "7961": " heet", "7962": " head", "7963": " ge\u00c3\u00afnteresse", "7964": " future", "7965": " fantastische", "7966": " fles", "7967": " experiment", "7968": " equally", "7969": " emoties", "7970": " eindelijk", "7971": " economie", "7972": " discussion", "7973": " dedic", "7974": " d\u00c3\u00a9", "7975": " candy", "7976": " bird", "7977": " betreffende", "7978": " beschikken", "7979": " boe", "7980": " assault", "7981": " along", "7982": " advise", "7983": " activity", "7984": " aanvull", "7985": " Staten", "7986": " Kom", "7987": " Jess", "7988": " Ja", "7989": " Green", "7990": " Colle", "7991": " Col", "7992": " Bus", "7993": "\u00e2\u009c", "7994": "verzekering", "7995": "vertrouwen", "7996": "slagen", "7997": "rucht", "7998": "plicht", "7999": "por", "8000": "ostaat", "8001": "order", "8002": "orst", "8003": "oked", "8004": "nic", "8005": "kleding", "8006": "handeling", "8007": "gerecht", "8008": "die", "8009": "chair", "8010": "camp", "8011": "bedrijven", "8012": "asc", "8013": "arian", "8014": "Ontdek", "8015": "OS", "8016": "21", "8017": " voeten", "8018": " verzamelen", "8019": " verzek", "8020": " vracht", "8021": " urgent", "8022": " toddler", "8023": " testen", "8024": " those", "8025": " soll", "8026": " smoking", "8027": " sleeping", "8028": " saying", "8029": " rude", "8030": " rights", "8031": " reinigen", "8032": " reject", "8033": " potenti\u00c3\u00able", "8034": " plaatsvinden", "8035": " poker", "8036": " opzichte", "8037": " opinions", "8038": " minimum", "8039": " manipulated", "8040": " mid", "8041": " lossen", "8042": " leek", "8043": " lening", "8044": " kunststof", "8045": " irrit", "8046": " informing", "8047": " ignore", "8048": " harmless", "8049": " haven", "8050": " hired", "8051": " fix", "8052": " experts", "8053": " estranged", "8054": " essenti\u00c3\u00able", "8055": " economische", "8056": " daarin", "8057": " criticized", "8058": " cheated", "8059": " casinosp", "8060": " caf\u00c3\u00a9", "8061": " brede", "8062": " bodem", "8063": " beschouwd", "8064": " benut", "8065": " bewijs", "8066": " beveiliging", "8067": " attractive", "8068": " assuming", "8069": " already", "8070": " afscheid", "8071": " aant", "8072": " Zowel", "8073": " Steve", "8074": " Spelen", "8075": " Se", "8076": " Pet", "8077": " Nieuwe", "8078": " CEO", "8079": "ystemen", "8080": "team", "8081": "ronden", "8082": "rijft", "8083": "ouwing", "8084": "merking", "8085": "loaden", "8086": "ley", "8087": "lange", "8088": "lach", "8089": "ioneel", "8090": "icult", "8091": "icatie", "8092": "erste", "8093": "engte", "8094": "bergen", "8095": "bureau", "8096": "bit", "8097": "ashion", "8098": "Un", "8099": "Reg", "8100": "Neem", "8101": " \u00c3\u00a9cht", "8102": " wheelchair", "8103": " veroorzaakt", "8104": " vari\u00c3\u00abren", "8105": " treated", "8106": " slaan", "8107": " sessie", "8108": " relevante", "8109": " reeks", "8110": " reass", "8111": " rekenen", "8112": " quietly", "8113": " progress", "8114": " preferences", "8115": " necess", "8116": " menu", "8117": " members", "8118": " melk", "8119": " lat", "8120": " katten", "8121": " ingew", "8122": " individuals", "8123": " inclus", "8124": " hoewel", "8125": " hold", "8126": " graf", "8127": " gevar", "8128": " golf", "8129": " formaat", "8130": " country", "8131": " construct", "8132": " comfortable", "8133": " bewegen", "8134": " beslissing", "8135": " beschikbare", "8136": " behandeld", "8137": " buur", "8138": " avoids", "8139": " assigned", "8140": " appartement", "8141": " aantrekkelijke", "8142": " aanrader", "8143": " Vlaam", "8144": " Ven", "8145": " Sally", "8146": " Sal", "8147": " Min", "8148": " Mag", "8149": " Heel", "8150": " Bru", "8151": " As", "8152": " ijs", "8153": "\u00e2\u0080\u0094\u00e2\u0080\u0094\u00e2\u0080\u0094\u00e2\u0080\u0094\u00e2\u0080\u0094\u00e2\u0080\u0094\u00e2\u0080\u0094\u00e2\u0080\u0094", "8154": "zoekers", "8155": "rif", "8156": "pakket", "8157": "ouders", "8158": "opvang", "8159": "omein", "8160": "oment", "8161": "model", "8162": "ka", "8163": "iefd", "8164": "ievement", "8165": "gerichte", "8166": "brengen", "8167": "bord", "8168": "besp", "8169": "airs", "8170": "aded", "8171": "adat", "8172": "DY", "8173": "500", "8174": " yelled", "8175": " waarheid", "8176": " voertuig", "8177": " ventil", "8178": " veeg", "8179": " valuable", "8180": " thank", "8181": " term", "8182": " stranded", "8183": " stevige", "8184": " schip", "8185": " saw", "8186": " recover", "8187": " recip", "8188": " opgel", "8189": " onderzoeks", "8190": " onderhouds", "8191": " nauwelijks", "8192": " naad", "8193": " nest", "8194": " message", "8195": " mention", "8196": " medi", "8197": " maxim", "8198": " mind", "8199": " lot", "8200": " kwal", "8201": " interact", "8202": " honor", "8203": " hug", "8204": " gevel", "8205": " goud", "8206": " fysiek", "8207": " fan", "8208": " externe", "8209": " engaging", "8210": " disability", "8211": " dieet", "8212": " dru", "8213": " comforting", "8214": " chang", "8215": " cer", "8216": " boodschappen", "8217": " blind", "8218": " beschermd", "8219": " bereikbaar", "8220": " banden", "8221": " accepted", "8222": " aangezien", "8223": " aanbev", "8224": " aansluiten", "8225": " Vrij", "8226": " PS", "8227": " PDF", "8228": " Mer", "8229": " Hun", "8230": " Daardoor", "8231": " Bil", "8232": "wijfeld", "8233": "uters", "8234": "ung", "8235": "ounts", "8236": "ktail", "8237": "kken", "8238": "kan", "8239": "isteren", "8240": "install", "8241": "ije", "8242": "igings", "8243": "ibli", "8244": "halve", "8245": "houder", "8246": "emm", "8247": "antal", "8248": "ankelijke", "8249": "amera", "8250": "alings", "8251": "aches", "8252": "Zorg", "8253": "Vanaf", "8254": "Ste", "8255": "Let", "8256": "Geen", "8257": "26", "8258": ");", "8259": " \u00e2\u0080\u00a2", "8260": " wish", "8261": " veranda", "8262": " toont", "8263": " tickets", "8264": " tekenen", "8265": " teksten", "8266": " suspicious", "8267": " supermarkt", "8268": " stories", "8269": " stads", "8270": " storting", "8271": " session", "8272": " sand", "8273": " retour", "8274": " resentment", "8275": " rechter", "8276": " publieke", "8277": " oorlog", "8278": " onvol", "8279": " muzik", "8280": " meetings", "8281": " medische", "8282": " malicious", "8283": " melden", "8284": " liep", "8285": " levendige", "8286": " income", "8287": " identiteit", "8288": " humiliated", "8289": " groenten", "8290": " glim", "8291": " gezinnen", "8292": " focusing", "8293": " facil", "8294": " festival", "8295": " fem", "8296": " exact", "8297": " droge", "8298": " disrupting", "8299": " diabetes", "8300": " chef", "8301": " cost", "8302": " belast", "8303": " big", "8304": " allergic", "8305": " achievement", "8306": " accessoires", "8307": " aanget", "8308": " Zeker", "8309": " Via", "8310": " VS", "8311": " Mocht", "8312": " 198", "8313": " ij", "8314": "ype", "8315": "vermogen", "8316": "unte", "8317": "umin", "8318": "spelen", "8319": "qu\u00c3\u00aa", "8320": "person", "8321": "periode", "8322": "owies", "8323": "overeenkomst", "8324": "ooft", "8325": "oeid", "8326": "oef", "8327": "kunde", "8328": "iseren", "8329": "intent", "8330": "inaat", "8331": "iki", "8332": "ifte", "8333": "iever", "8334": "fase", "8335": "emidd", "8336": "dekt", "8337": "commissie", "8338": "atory", "8339": "atives", "8340": "apping", "8341": "agne", "8342": "activiteiten", "8343": "aagse", "8344": "aai", "8345": "affen", "8346": "Zelf", "8347": "VO", "8348": "IG", "8349": " wetgeving", "8350": " werkplek", "8351": " volk", "8352": " veranderd", "8353": " toegep", "8354": " toxic", "8355": " toern", "8356": " tell", "8357": " studies", "8358": " stam", "8359": " slow", "8360": " sets", "8361": " scene", "8362": " routine", "8363": " regelgeving", "8364": " recre", "8365": " reeds", "8366": " ring", "8367": " protests", "8368": " prescribed", "8369": " overtu", "8370": " ong", "8371": " often", "8372": " mocks", "8373": " lawn", "8374": " litt", "8375": " lamp", "8376": " krachtig", "8377": " ketel", "8378": " kitchen", "8379": " horeca", "8380": " herken", "8381": " harde", "8382": " gras", "8383": " ge\u00c3\u00afntegr", "8384": " gebruiker", "8385": " downloaden", "8386": " datum", "8387": " cli\u00c3\u00abnten", "8388": " calorie\u00c3\u00abn", "8389": " cyber", "8390": " cold", "8391": " bronnen", "8392": " blamed", "8393": " belittles", "8394": " bills", "8395": " afkomst", "8396": " advantage", "8397": " aangen", "8398": " Sk", "8399": " Nieuw", "8400": " Hall", "8401": " Ener", "8402": " Christus", "8403": " 29", "8404": "zon", "8405": "zocht", "8406": "verde", "8407": "ultuur", "8408": "uy", "8409": "uf", "8410": "spellen", "8411": "risis", "8412": "riek", "8413": "pport", "8414": "pleeg", "8415": "owieso", "8416": "oma", "8417": "ox", "8418": "neemt", "8419": "mense", "8420": "mas", "8421": "laten", "8422": "kundig", "8423": "ketten", "8424": "iseerde", "8425": "ificaties", "8426": "houding", "8427": "ettingen", "8428": "etsen", "8429": "eters", "8430": "dan", "8431": "beelden", "8432": "arks", "8433": "ached", "8434": "29", "8435": " zwang", "8436": " victim", "8437": " viel", "8438": " trek", "8439": " toepassen", "8440": " talloze", "8441": " symptomen", "8442": " subsid", "8443": " strategische", "8444": " soepel", "8445": " schrijft", "8446": " samenwerken", "8447": " song", "8448": " propos", "8449": " plastic", "8450": " persoons", "8451": " perio", "8452": " opinion", "8453": " openbaar", "8454": " occas", "8455": " oversch", "8456": " nummers", "8457": " netjes", "8458": " multiple", "8459": " missie", "8460": " method", "8461": " machines", "8462": " leveranciers", "8463": " intending", "8464": " immense", "8465": " iPhone", "8466": " hierin", "8467": " habits", "8468": " hopen", "8469": " gifts", "8470": " gesl", "8471": " garden", "8472": " frisse", "8473": " eigenschappen", "8474": " discussie", "8475": " diepte", "8476": " deceased", "8477": " ding", "8478": " boodschap", "8479": " beveiligings", "8480": " brug", "8481": " anti", "8482": " alsnog", "8483": " airco", "8484": " aanvulling", "8485": " aansp", "8486": " Tr", "8487": " Kortom", "8488": " Her", "8489": " Geme", "8490": " Cur", "8491": " Bonus", "8492": " Alles", "8493": " Air", "8494": "zienswaard", "8495": "woorden", "8496": "ween", "8497": "useum", "8498": "ulf", "8499": "special", "8500": "soft", "8501": "roly", "8502": "roffen", "8503": "roeg", "8504": "ri\u00c3\u00able", "8505": "rekend", "8506": "i\u00c3\u00abr", "8507": "itional", "8508": "istence", "8509": "iening", "8510": "haal", "8511": "ande", "8512": "ague", "8513": "Hij", "8514": "EA", "8515": "66", "8516": ",\"", "8517": " \u00e2\u0080\u008b\u00e2\u0080\u008b", "8518": " whis", "8519": " verded", "8520": " uitk", "8521": " ta", "8522": " straf", "8523": " steen", "8524": " spieren", "8525": " sollicit", "8526": " sier", "8527": " rijke", "8528": " rechtbank", "8529": " processen", "8530": " proef", "8531": " plat", "8532": " patronen", "8533": " opdrachten", "8534": " opgericht", "8535": " oefeningen", "8536": " oblig", "8537": " news", "8538": " moesten", "8539": " mode", "8540": " miner", "8541": " milit", "8542": " meen", "8543": " low", "8544": " klantenservice", "8545": " instantie", "8546": " ingewikk", "8547": " ingericht", "8548": " huw", "8549": " huizen", "8550": " haalt", "8551": " glad", "8552": " gestart", "8553": " gelden", "8554": " gekeken", "8555": " gym", "8556": " following", "8557": " few", "8558": " ethical", "8559": " essential", "8560": " ernaar", "8561": " contag", "8562": " communicate", "8563": " cerem", "8564": " cigar", "8565": " camper", "8566": " beschreven", "8567": " bedragen", "8568": " arrang", "8569": " anxiety", "8570": " analys", "8571": " accent", "8572": " Word", "8573": " Universiteit", "8574": " Security", "8575": " Pal", "8576": " Leu", "8577": " Jaar", "8578": " Fin", "8579": " Echter", "8580": " Cont", "8581": " Ac", "8582": "wicht", "8583": "velop", "8584": "va", "8585": "uminium", "8586": "uiven", "8587": "sem", "8588": "rot", "8589": "pol", "8590": "opper", "8591": "oeden", "8592": "obert", "8593": "mos", "8594": "ijds", "8595": "iveren", "8596": "harding", "8597": "gehe", "8598": "gaand", "8599": "ertje", "8600": "ensie", "8601": "eloze", "8602": "durend", "8603": "duid", "8604": "cast", "8605": "bedrag", "8606": "boeken", "8607": "agers", "8608": "achter", "8609": "Die", "8610": ".)", "8611": " waardevol", "8612": " waarborgen", "8613": " vriendin", "8614": " vertrouw", "8615": " versterkt", "8616": " vermijden", "8617": " verlaten", "8618": " verbruik", "8619": " vandal", "8620": " valut", "8621": " velen", "8622": " uitbre", "8623": " try", "8624": " toepassingen", "8625": " therapie", "8626": " thor", "8627": " stoel", "8628": " stemmen", "8629": " stonden", "8630": " speed", "8631": " rab", "8632": " oppos", "8633": " onvergetelijke", "8634": " ontslag", "8635": " onto", "8636": " onlangs", "8637": " marmer", "8638": " muren", "8639": " longer", "8640": " leeg", "8641": " led", "8642": " klikken", "8643": " klik", "8644": " jaarlijkse", "8645": " introdu", "8646": " installeren", "8647": " infrastructuur", "8648": " indrukwekkende", "8649": " ideas", "8650": " household", "8651": " hecht", "8652": " grootte", "8653": " goederen", "8654": " gehoord", "8655": " gegar", "8656": " gunst", "8657": " functionaliteit", "8658": " fouten", "8659": " filos", "8660": " fell", "8661": " face", "8662": " exclusieve", "8663": " evening", "8664": " enjoying", "8665": " embarrassment", "8666": " differences", "8667": " contagious", "8668": " concern", "8669": " center", "8670": " casinospellen", "8671": " bewaren", "8672": " bevestigd", "8673": " besluiten", "8674": " bergen", "8675": " assert", "8676": " afger", "8677": " accomp", "8678": " Zelfs", "8679": " Lucas", "8680": " George", "8681": " Ger", "8682": "\u00c3\u00ad", "8683": "werkings", "8684": "verand", "8685": "point", "8686": "ottery", "8687": "ositie", "8688": "kamers", "8689": "inning", "8690": "iering", "8691": "handel", "8692": "gezond", "8693": "gier", "8694": "erderij", "8695": "erving", "8696": "erve", "8697": "cut", "8698": "brug", "8699": "breng", "8700": "aps", "8701": "Zijn", "8702": "Product", "8703": "Hel", "8704": "Deel", "8705": "CE", "8706": " zonne", "8707": " zoektocht", "8708": " witnessed", "8709": " warnings", "8710": " voorzitter", "8711": " volunteered", "8712": " veroorzaken", "8713": " verjaardag", "8714": " verstand", "8715": " ven", "8716": " unex", "8717": " ultim", "8718": " uplo", "8719": " trying", "8720": " toegepast", "8721": " tijdje", "8722": " tijdig", "8723": " tempo", "8724": " table", "8725": " strategie\u00c3\u00abn", "8726": " spoor", "8727": " schitter", "8728": " signs", "8729": " recente", "8730": " prescription", "8731": " politiek", "8732": " perspective", "8733": " painting", "8734": " ontmoeten", "8735": " ondert", "8736": " onmogelijk", "8737": " offici\u00c3\u00able", "8738": " negative", "8739": " needing", "8740": " missen", "8741": " medit", "8742": " limit", "8743": " lichaams", "8744": " lezers", "8745": " lekkere", "8746": " lasers", "8747": " landschap", "8748": " lottery", "8749": " lijnen", "8750": " koopt", "8751": " interrupting", "8752": " interessante", "8753": " inspect", "8754": " inside", "8755": " houding", "8756": " harte", "8757": " gevestigd", "8758": " genees", "8759": " gegarand", "8760": " fraud", "8761": " final", "8762": " dropped", "8763": " discour", "8764": " disagreeing", "8765": " digitaal", "8766": " degenen", "8767": " damaging", "8768": " cultural", "8769": " creatief", "8770": " cry", "8771": " complain", "8772": " bleef", "8773": " bestemming", "8774": " beheren", "8775": " bedraagt", "8776": " bomen", "8777": " attracted", "8778": " Surin", "8779": " Rad", "8780": " Ne", "8781": " Mob", "8782": " Kerk", "8783": " Kar", "8784": " KPN", "8785": " Heeft", "8786": " Holland", "8787": " Geld", "8788": " Free", "8789": " Doe", "8790": " 75", "8791": " 2012", "8792": "\u00c3\u00b3\u00c3\u00b3r", "8793": "zienswaardigheden", "8794": "waliteit", "8795": "vereniging", "8796": "vlees", "8797": "video", "8798": "unteers", "8799": "uleerd", "8800": "uct", "8801": "sterk", "8802": "rijding", "8803": "pan", "8804": "ource", "8805": "ountain", "8806": "organisatie", "8807": "ove", "8808": "oes", "8809": "inda", "8810": "ierd", "8811": "idal", "8812": "hol", "8813": "hip", "8814": "gesprek", "8815": "gangsp", "8816": "gaven", "8817": "erkant", "8818": "ergie", "8819": "elefoon", "8820": "cious", "8821": "board", "8822": "beek", "8823": "arde", "8824": "anda", "8825": "ama", "8826": "aching", "8827": "aft", "8828": "OOR", "8829": "MO", "8830": "Ga", "8831": " yelling", "8832": " warmly", "8833": " wegen", "8834": " voorop", "8835": " volunteering", "8836": " volunteers", "8837": " vleug", "8838": " verbinden", "8839": " vloeren", "8840": " unwell", "8841": " uitsluitend", "8842": " trouwens", "8843": " trekt", "8844": " totdat", "8845": " tomaten", "8846": " tijdelijk", "8847": " thorough", "8848": " struct", "8849": " stel", "8850": " specialisten", "8851": " shoplift", "8852": " schrijf", "8853": " rend", "8854": " raam", "8855": " prioritizes", "8856": " principe", "8857": " pregnant", "8858": " portion", "8859": " paarden", "8860": " pushed", "8861": " pool", "8862": " point", "8863": " onmiddellijk", "8864": " morning", "8865": " monit", "8866": " moeit", "8867": " menselijke", "8868": " maatschappelijke", "8869": " learn", "8870": " light", "8871": " laden", "8872": " kwest", "8873": " kool", "8874": " jas", "8875": " infect", "8876": " herinneringen", "8877": " heirloom", "8878": " hesit", "8879": " gokkasten", "8880": " gebeurd", "8881": " former", "8882": " filter", "8883": " fault", "8884": " fully", "8885": " experien", "8886": " drankje", "8887": " difficult", "8888": " diepe", "8889": " dut", "8890": " duren", "8891": " diner", "8892": " dial", "8893": " couple", "8894": " clim", "8895": " bereiden", "8896": " berichten", "8897": " autor", "8898": " afgestemd", "8899": " Veg", "8900": " Team", "8901": " Marokk", "8902": " Men", "8903": " Houd", "8904": " Fil", "8905": " Belgische", "8906": " Bro", "8907": " Adri", "8908": " 55", "8909": "zee", "8910": "word", "8911": "vergoed", "8912": "ucci", "8913": "ubliceerd", "8914": "riv", "8915": "pijn", "8916": "ody", "8917": "nspir", "8918": "materialen", "8919": "management", "8920": "laat", "8921": "kte", "8922": "ionale", "8923": "iled", "8924": "endence", "8925": "edom", "8926": "duceerd", "8927": "bere", "8928": "anal", "8929": "advies", "8930": "accin", "8931": "Sport", "8932": "Ons", "8933": "NL", "8934": " zwemmen", "8935": " zelfvertrouwen", "8936": " zelfstandig", "8937": " wijnen", "8938": " vlag", "8939": " verzorging", "8940": " verlopen", "8941": " verloopt", "8942": " valid", "8943": " unintent", "8944": " unc", "8945": " ultieme", "8946": " traum", "8947": " toegestaan", "8948": " tevoren", "8949": " tv", "8950": " tand", "8951": " stijlen", "8952": " steek", "8953": " starts", "8954": " spiritu", "8955": " speaking", "8956": " shoot", "8957": " should", "8958": " secrets", "8959": " squ", "8960": " rumor", "8961": " rivier", "8962": " recorded", "8963": " reason", "8964": " presentatie", "8965": " pregnancy", "8966": " prikk", "8967": " played", "8968": " overwinning", "8969": " older", "8970": " oefenen", "8971": " normale", "8972": " minuut", "8973": " middle", "8974": " market", "8975": " maten", "8976": " landelijke", "8977": " kleinere", "8978": " kicked", "8979": " jurk", "8980": " includ", "8981": " fans", "8982": " expresses", "8983": " eerlijke", "8984": " doorgaan", "8985": " debate", "8986": " dromen", "8987": " complexe", "8988": " blok", "8989": " betaalbare", "8990": " bedoeling", "8991": " beurt", "8992": " bang", "8993": " amount", "8994": " aft", "8995": " Uiteindelijk", "8996": " Probeer", "8997": " Midd", "8998": " II", "8999": " Har", "9000": " Engels", "9001": " Camp", "9002": " Brussel", "9003": "xtens", "9004": "xim", "9005": "volen", "9006": "vergoeding", "9007": "vatten", "9008": "uxe", "9009": "ustral", "9010": "ulin", "9011": "ulde", "9012": "sluiting", "9013": "rolyten", "9014": "rete", "9015": "onnement", "9016": "onse", "9017": "ocument", "9018": "ocking", "9019": "maatschapp", "9020": "kend", "9021": "itco", "9022": "intig", "9023": "ingers", "9024": "ijsten", "9025": "ify", "9026": "iekro", "9027": "iem", "9028": "gemak", "9029": "geen", "9030": "father", "9031": "erextens", "9032": "eenkomsten", "9033": "car", "9034": "bsite", "9035": "angers", "9036": "ament", "9037": "aby", "9038": "LA", "9039": "Gr", "9040": "?'", "9041": " zover", "9042": " zodra", "9043": " wijzigen", "9044": " wettelijke", "9045": " werkelijkheid", "9046": " wek", "9047": " vliegt", "9048": " vakman", "9049": " uitg", "9050": " trainings", "9051": " theft", "9052": " tuss", "9053": " tient", "9054": " taf", "9055": " symbool", "9056": " subt", "9057": " staal", "9058": " schoonmaak", "9059": " scherp", "9060": " ruining", "9061": " responsible", "9062": " relevant", "9063": " registr", "9064": " probeer", "9065": " politic", "9066": " perman", "9067": " opv", "9068": " opmerk", "9069": " oordeel", "9070": " ondersteunt", "9071": " onafhankelijk", "9072": " motivatie", "9073": " miljard", "9074": " mechan", "9075": " must", "9076": " math", "9077": " letsel", "9078": " letting", "9079": " loon", "9080": " letten", "9081": " koude", "9082": " klacht", "9083": " kok", "9084": " kam", "9085": " jury", "9086": " informeren", "9087": " heren", "9088": " halve", "9089": " hire", "9090": " hiding", "9091": " growth", "9092": " ge\u00c3\u00afnteresseerd", "9093": " gevolgd", "9094": " feiten", "9095": " fantastisch", "9096": " extr", "9097": " ext", "9098": " enig", "9099": " demonstrating", "9100": " dun", "9101": " dert", "9102": " dad", "9103": " criminal", "9104": " continu", "9105": " certific", "9106": " breaks", "9107": " brieven", "9108": " benodigde", "9109": " bellen", "9110": " behal", "9111": " begrijp", "9112": " antwoorden", "9113": " annoyed", "9114": " acties", "9115": " acqu", "9116": " aangesloten", "9117": " Zen", "9118": " Robert", "9119": " Rich", "9120": " Gratis", "9121": " FC", "9122": " Austral", "9123": "zin", "9124": "wedstrijd", "9125": "walk", "9126": "u\u00c3\u00aft", "9127": "under", "9128": "re\u00c3\u00ab", "9129": "posit", "9130": "istic", "9131": "ishment", "9132": "ifying", "9133": "houders", "9134": "estijn", "9135": "erings", "9136": "enne", "9137": "elateerde", "9138": "efd", "9139": "eit", "9140": "Tra", "9141": "Omdat", "9142": "Dag", "9143": "Beg", "9144": "48", "9145": "33", "9146": " waited", "9147": " wr", "9148": " vrouwelijke", "9149": " voortdurend", "9150": " unfairly", "9151": " twijfel", "9152": " toevoeging", "9153": " toel", "9154": " thoughtful", "9155": " teaching", "9156": " sud", "9157": " sterker", "9158": " smile", "9159": " smashed", "9160": " second", "9161": " sought", "9162": " remarks", "9163": " regular", "9164": " reflect", "9165": " reun", "9166": " rock", "9167": " pupp", "9168": " perspectief", "9169": " pil", "9170": " overwe", "9171": " opportunity", "9172": " oefening", "9173": " nogal", "9174": " naden", "9175": " meenemen", "9176": " logo", "9177": " lengte", "9178": " klinkt", "9179": " inspireren", "9180": " hung", "9181": " holiday", "9182": " happiness", "9183": " hack", "9184": " geschikte", "9185": " geheim", "9186": " gegarandeerd", "9187": " gecombin", "9188": " forum", "9189": " finally", "9190": " exercise", "9191": " esthet", "9192": " emotions", "9193": " effects", "9194": " editie", "9195": " dubbel", "9196": " dikke", "9197": " diam", "9198": " deskundige", "9199": " decide", "9200": " dark", "9201": " cries", "9202": " cancel", "9203": " blaming", "9204": " bevolking", "9205": " behoren", "9206": " beantwoorden", "9207": " bezienswaardigheden", "9208": " apologize", "9209": " allowed", "9210": " alvast", "9211": " aggressive", "9212": " Zoek", "9213": " Water", "9214": " Sus", "9215": " Meest", "9216": " Ass", "9217": "\u00e2\u0098\u0085", "9218": "verzorging", "9219": "uilen", "9220": "stenen", "9221": "rukken", "9222": "ried", "9223": "punk", "9224": "pret", "9225": "oornis", "9226": "jud", "9227": "ilde", "9228": "gewicht", "9229": "gend", "9230": "colle", "9231": "cken", "9232": "assa", "9233": "alent", "9234": "aagde", "9235": "Volgens", "9236": "VID", "9237": "OR", "9238": "EM", "9239": "Cl", "9240": "Bent", "9241": " withheld", "9242": " wilden", "9243": " werkelijk", "9244": " women", "9245": " volume", "9246": " unexpected", "9247": " true", "9248": " tripped", "9249": " trainen", "9250": " toys", "9251": " threatened", "9252": " tentoonstelling", "9253": " telefon", "9254": " tegenstelling", "9255": " talking", "9256": " suggesting", "9257": " stichting", "9258": " sneeuw", "9259": " salaris", "9260": " roman", "9261": " revealing", "9262": " records", "9263": " produceren", "9264": " privately", "9265": " practice", "9266": " potentially", "9267": " politieke", "9268": " platforms", "9269": " omgaan", "9270": " note", "9271": " memor", "9272": " independence", "9273": " herkennen", "9274": " ground", "9275": " generously", "9276": " gedeelte", "9277": " got", "9278": " ernstige", "9279": " drunk", "9280": " destro", "9281": " daarop", "9282": " divers", "9283": " copied", "9284": " consum", "9285": " competition", "9286": " cocktail", "9287": " burger", "9288": " burgemeester", "9289": " building", "9290": " boeren", "9291": " board", "9292": " beschikking", "9293": " beoordelen", "9294": " aluminium", "9295": " afgesloten", "9296": " advised", "9297": " actuele", "9298": " aanvraag", "9299": " aanleiding", "9300": " Techn", "9301": " Ros", "9302": " Piekro", "9303": " Management", "9304": " Laur", "9305": " Jen", "9306": " Grand", "9307": " Gok", "9308": " EN", "9309": " Daarmee", "9310": " Ag", "9311": " 197", "9312": "zinn", "9313": "wisseling", "9314": "wegen", "9315": "vorming", "9316": "valt", "9317": "vet", "9318": "ups", "9319": "uled", "9320": "schriften", "9321": "service", "9322": "producten", "9323": "pje", "9324": "outen", "9325": "omstandigheden", "9326": "olang", "9327": "oer", "9328": "medewerker", "9329": "lymp", "9330": "head", "9331": "gras", "9332": "gebieden", "9333": "etaille", "9334": "erij", "9335": "empel", "9336": "eerders", "9337": "cours", "9338": "clude", "9339": "camera", "9340": "anted", "9341": "abol", "9342": "VD", "9343": "Open", "9344": "Ken", "9345": "EER", "9346": " zekerheid", "9347": " wereldwijde", "9348": " vulnerable", "9349": " voeg", "9350": " verwarm", "9351": " verfijn", "9352": " vastgelegd", "9353": " v\u00c3\u00b3\u00c3\u00b3r", "9354": " unus", "9355": " town", "9356": " threw", "9357": " this", "9358": " terminal", "9359": " tap", "9360": " suicidal", "9361": " stranden", "9362": " stijlvol", "9363": " stayed", "9364": " spilled", "9365": " smaken", "9366": " sites", "9367": " sense", "9368": " retaliation", "9369": " restaurants", "9370": " relaties", "9371": " raakt", "9372": " promoties", "9373": " profiel", "9374": " ontdekt", "9375": " necessary", "9376": " moeilijke", "9377": " laughing", "9378": " lav", "9379": " koning", "9380": " kabinet", "9381": " jar", "9382": " inviting", "9383": " interests", "9384": " integratie", "9385": " intu\u00c3\u00aft", "9386": " harass", "9387": " grandparents", "9388": " geraakt", "9389": " gecertific", "9390": " fort", "9391": " films", "9392": " explan", "9393": " eraan", "9394": " dubbele", "9395": " donkere", "9396": " doos", "9397": " cruciale", "9398": " crying", "9399": " counter", "9400": " corrected", "9401": " combineert", "9402": " color", "9403": " clos", "9404": " bevordert", "9405": " bathroom", "9406": " attempting", "9407": " artwork", "9408": " analyse", "9409": " afkomstig", "9410": " Welke", "9411": " Jij", "9412": " Instagram", "9413": " Helaas", "9414": " Franse", "9415": " Emily", "9416": " Elk", "9417": " Chris", "9418": " CLT", "9419": " Art", "9420": "\u00e2\u0080\u008d", "9421": "\u00c2\u00b4", "9422": "\u00c2\u00ad", "9423": "zp", "9424": "yt", "9425": "yd", "9426": "wegingen", "9427": "versie", "9428": "urren", "9429": "ukt", "9430": "uizing", "9431": "twonen", "9432": "stall", "9433": "rokino", "9434": "rokinole", "9435": "rekt", "9436": "plannen", "9437": "press", "9438": "pass", "9439": "osis", "9440": "onderzoek", "9441": "omin", "9442": "ola", "9443": "ocurren", "9444": "kussen", "9445": "interest", "9446": "iaste", "9447": "euwen", "9448": "ekeningen", "9449": "ca", "9450": "bruik", "9451": "atische", "9452": "atal", "9453": "asted", "9454": "ache", "9455": "Welkom", "9456": "Twe", "9457": "Tip", "9458": "Ten", "9459": "Sinds", "9460": "OP", "9461": "Dan", "9462": "55", "9463": "31", "9464": "100", "9465": "....", "9466": " zaal", "9467": " workshops", "9468": " winnaar", "9469": " welcom", "9470": " wishing", "9471": " wakker", "9472": " vrijblijvend", "9473": " voorzicht", "9474": " verwijderd", "9475": " vertrek", "9476": " vertelde", "9477": " verplichtingen", "9478": " verbetering", "9479": " vastgesteld", "9480": " valuing", "9481": " uitvaart", "9482": " uitnodig", "9483": " sudden", "9484": " subm", "9485": " stuur", "9486": " stenen", "9487": " steken", "9488": " spannend", "9489": " spring", "9490": " simpelweg", "9491": " schro", "9492": " sowieso", "9493": " sa", "9494": " robu", "9495": " repay", "9496": " recl", "9497": " promotie", "9498": " probeert", "9499": " poly", "9500": " persu", "9501": " pills", "9502": " organiseert", "9503": " opdrachtgevers", "9504": " opst", "9505": " onderlegger", "9506": " norms", "9507": " neglects", "9508": " nurs", "9509": " movies", "9510": " moeiteloos", "9511": " minstens", "9512": " mijzelf", "9513": " maatwerk", "9514": " little", "9515": " licham", "9516": " luid", "9517": " lift", "9518": " lenen", "9519": " kruiden", "9520": " kijkje", "9521": " ineens", "9522": " hyperextens", "9523": " hygien", "9524": " heights", "9525": " hield", "9526": " goedkoper", "9527": " gehaald", "9528": " geren", "9529": " filosof", "9530": " falsified", "9531": " fulf", "9532": " fresh", "9533": " fi", "9534": " exch", "9535": " evenwicht", "9536": " element", "9537": " effici\u00c3\u00abnter", "9538": " dishon", "9539": " diary", "9540": " divid", "9541": " crowd", "9542": " breedte", "9543": " bril", "9544": " bladeren", "9545": " binnenkort", "9546": " bewonder", "9547": " beperking", "9548": " benefits", "9549": " benadering", "9550": " belittle", "9551": " behoudt", "9552": " behang", "9553": " afloop", "9554": " admitted", "9555": " achievements", "9556": " aangem", "9557": " aunt", "9558": " Spins", "9559": " Prof", "9560": " PVC", "9561": " Canad", "9562": " 36", "9563": " ?", "9564": "vreden", "9565": "vingen", "9566": "schappelijke", "9567": "roid", "9568": "rijp", "9569": "ribute", "9570": "pten", "9571": "pet", "9572": "opath", "9573": "mond", "9574": "lamp", "9575": "keuren", "9576": "kantoor", "9577": "juist", "9578": "iveaus", "9579": "itcoin", "9580": "irk", "9581": "iev", "9582": "idings", "9583": "haar", "9584": "geschreven", "9585": "gewerkt", "9586": "ftig", "9587": "free", "9588": "ergens", "9589": "diensten", "9590": "ccer", "9591": "blijven", "9592": "aturen", "9593": "atch", "9594": "asy", "9595": "arch", "9596": "aper", "9597": "Heeft", "9598": "Hand", "9599": "Br", "9600": "?\"", "9601": " zzp", "9602": " why", "9603": " waarna", "9604": " wiet", "9605": " voordel", "9606": " voorstellen", "9607": " verkrijgen", "9608": " verkle", "9609": " vergelijken", "9610": " vergoeding", "9611": " vacatures", "9612": " vieren", "9613": " toezicht", "9614": " tijdelijke", "9615": " therapist", "9616": " symbolen", "9617": " superior", "9618": " stort", "9619": " spell", "9620": " spect", "9621": " soccer", "9622": " sincer", "9623": " silence", "9624": " sfeervolle", "9625": " schrijver", "9626": " risky", "9627": " resc", "9628": " puppy", "9629": " punishment", "9630": " problems", "9631": " procedure", "9632": " physically", "9633": " pedestrian", "9634": " opvallende", "9635": " opleidingen", "9636": " overs", "9637": " noten", "9638": " natural", "9639": " nadruk", "9640": " nader", "9641": " nek", "9642": " months", "9643": " mistakes", "9644": " maliciously", "9645": " may", "9646": " langzaam", "9647": " laadp", "9648": " kwalit", "9649": " jarenlang", "9650": " intellig", "9651": " human", "9652": " hemel", "9653": " handle", "9654": " hap", "9655": " gezamenlijk", "9656": " gewaard", "9657": " gemakkelijker", "9658": " gedetaille", "9659": " gedacht", "9660": " gatherings", "9661": " gall", "9662": " explanation", "9663": " effici\u00c3\u00abnte", "9664": " eenheid", "9665": " drukken", "9666": " dietary", "9667": " deelname", "9668": " dance", "9669": " dess", "9670": " desper", "9671": " culturele", "9672": " cert", "9673": " buff", "9674": " bloem", "9675": " betrokkenheid", "9676": " besproken", "9677": " bepaalt", "9678": " benadrukt", "9679": " basisschool", "9680": " attends", "9681": " anonymously", "9682": " afdeling", "9683": " aanbevolen", "9684": " Zodra", "9685": " Waarom", "9686": " Wor", "9687": " Wind", "9688": " Twee", "9689": " Turk", "9690": " Ted", "9691": " Review", "9692": " Roulette", "9693": " Nog", "9694": " Mal", "9695": " Limburg", "9696": " Leg", "9697": " Kevin", "9698": " Iedereen", "9699": " COVID", "9700": " Az", "9701": "zetting", "9702": "wal", "9703": "voord", "9704": "uleert", "9705": "som", "9706": "roningen", "9707": "rachten", "9708": "rick", "9709": "rar", "9710": "prot", "9711": "opdracht", "9712": "omb", "9713": "odes", "9714": "netwerk", "9715": "mailadres", "9716": "maar", "9717": "light", "9718": "kele", "9719": "ipp", "9720": "ios", "9721": "imeter", "9722": "imaat", "9723": "iloft", "9724": "ekh", "9725": "datum", "9726": "centra", "9727": "bot", "9728": "bec", "9729": "based", "9730": "athon", "9731": "atious", "9732": "assion", "9733": "ashing", "9734": "achtoff", "9735": "Vrij", "9736": "Voordelen", "9737": "VS", "9738": "Kies", "9739": "Beste", "9740": "99", "9741": "28", "9742": ",'", "9743": " woont", "9744": " waarschuw", "9745": " weth", "9746": " verlagen", "9747": " vergelijking", "9748": " vervel", "9749": " vacature", "9750": " virus", "9751": " unusual", "9752": " uneth", "9753": " thermostaat", "9754": " televisie", "9755": " teveel", "9756": " taxi", "9757": " tanden", "9758": " strength", "9759": " straks", "9760": " sted", "9761": " sprak", "9762": " ruimtes", "9763": " ruimt", "9764": " richtlijnen", "9765": " reviews", "9766": " reports", "9767": " recomm", "9768": " purchase", "9769": " protocol", "9770": " planned", "9771": " pays", "9772": " opger", "9773": " opged", "9774": " onvoldoende", "9775": " ongeacht", "9776": " onderwerpen", "9777": " ok", "9778": " losse", "9779": " limited", "9780": " kruis", "9781": " klas", "9782": " jarenlange", "9783": " interfere", "9784": " independ", "9785": " hungry", "9786": " heldere", "9787": " glimlach", "9788": " ge\u00c3\u00ab", "9789": " fotograf", "9790": " flirtatious", "9791": " flexibiliteit", "9792": " fired", "9793": " failing", "9794": " exclusief", "9795": " enthousiaste", "9796": " entertainment", "9797": " enqu\u00c3\u00aa", "9798": " effici\u00c3\u00abntie", "9799": " drinks", "9800": " domin", "9801": " dismissing", "9802": " dichtbij", "9803": " derden", "9804": " debt", "9805": " defect", "9806": " commissie", "9807": " compens", "9808": " cancer", "9809": " bovenstaande", "9810": " boord", "9811": " bless", "9812": " blauwe", "9813": " bijeenkomst", "9814": " betover", "9815": " beslag", "9816": " bewezen", "9817": " burg", "9818": " artiesten", "9819": " arrived", "9820": " architectuur", "9821": " alternatief", "9822": " afbeelding", "9823": " aanpakken", "9824": " York", "9825": " Von", "9826": " Voeg", "9827": " Thom", "9828": " Toy", "9829": " Sche", "9830": " Safe", "9831": " MODY", "9832": " Italiaanse", "9833": " Inmiddels", "9834": " Deposit", "9835": " Cal", "9836": " 45", "9837": " 196", "9838": "zins", "9839": "was", "9840": "uel", "9841": "straject", "9842": "rop", "9843": "reat", "9844": "planten", "9845": "outh", "9846": "ourney", "9847": "ouwer", "9848": "opties", "9849": "oplossingen", "9850": "oorlog", "9851": "oloog", "9852": "lord", "9853": "iversary", "9854": "ivel", "9855": "inge", "9856": "ijns", "9857": "ificeren", "9858": "ida", "9859": "formulier", "9860": "essies", "9861": "ermijn", "9862": "contact", "9863": "bonus", "9864": "bewust", "9865": "behoeften", "9866": "angezien", "9867": "accept", "9868": "aanderen", "9869": "%.", "9870": " zonwering", "9871": " wezen", "9872": " w\u00c3\u00a9l", "9873": " weren", "9874": " voorbereiding", "9875": " volgend", "9876": " verkoper", "9877": " vergelijkbaar", "9878": " verdachte", "9879": " veiligheids", "9880": " vastgoed", "9881": " unintentionally", "9882": " toets", "9883": " texts", "9884": " tarieven", "9885": " supervisor", "9886": " server", "9887": " remains", "9888": " remember", "9889": " receive", "9890": " ran", "9891": " prepared", "9892": " prejud", "9893": " praat", "9894": " podium", "9895": " platt", "9896": " persoonsgegevens", "9897": " parkeren", "9898": " panic", "9899": " overlijden", "9900": " overleden", "9901": " ontmoet", "9902": " onth", "9903": " ondergrond", "9904": " officer", "9905": " makes", "9906": " mug", "9907": " luxur", "9908": " lavish", "9909": " lijf", "9910": " knocked", "9911": " katoen", "9912": " investeringen", "9913": " invulling", "9914": " injury", "9915": " inged", "9916": " insec", "9917": " heil", "9918": " handelen", "9919": " handd", "9920": " gram", "9921": " gewone", "9922": " genoten", "9923": " gecontrole", "9924": " gecon", "9925": " gru", "9926": " glo", "9927": " forb", "9928": " fairness", "9929": " escort", "9930": " error", "9931": " enz", "9932": " drop", "9933": " dessert", "9934": " deels", "9935": " days", "9936": " dying", "9937": " cryptocurren", "9938": " couns", "9939": " confessed", "9940": " bullying", "9941": " besloot", "9942": " beperken", "9943": " bedre", "9944": " balk", "9945": " bri", "9946": " anniversary", "9947": " adopted", "9948": " administr", "9949": " Willem", "9950": " Tony", "9951": " Stel", "9952": " Smith", "9953": " Red", "9954": " Mont", "9955": " League", "9956": " Josh", "9957": " Hiervoor", "9958": " Go", "9959": " Eigen", "9960": " Doordat", "9961": " City", "9962": " =", "9963": "voort", "9964": "volutie", "9965": "vergunning", "9966": "verandering", "9967": "uze", "9968": "uif", "9969": "strategie", "9970": "standing", "9971": "ruction", "9972": "peratuur", "9973": "opleiding", "9974": "ontroleer", "9975": "ommun", "9976": "methoden", "9977": "making", "9978": "leider", "9979": "ipment", "9980": "ionals", "9981": "erschillende", "9982": "ersen", "9983": "doen", "9984": "bol", "9985": "basis", "9986": "auff", "9987": "apparaat", "9988": "ano", "9989": "afstand", "9990": "PO", "9991": "Nieuws", "9992": "Klik", "9993": "IL", "9994": "Conclusie", "9995": "BS", "9996": "34", "9997": "--------", "9998": " wiel", "9999": " vriendelijke", "10000": " voldaan", "10001": " virtuele", "10002": " verzekerd", "10003": " verkeerde", "10004": " vaat", "10005": " upcoming", "10006": " unethical", "10007": " transform", "10008": " teenage", "10009": " sympathy", "10010": " supporting", "10011": " stage", "10012": " spray", "10013": " snijden", "10014": " slice", "10015": " sincerely", "10016": " serieus", "10017": " selecteren", "10018": " screen", "10019": " reunion", "10020": " restrictions", "10021": " recognizing", "10022": " rud", "10023": " profits", "10024": " paint", "10025": " pitt", "10026": " peer", "10027": " pau", "10028": " opbouwen", "10029": " onderzoekers", "10030": " notaris", "10031": " meed", "10032": " mast", "10033": " loopbaan", "10034": " lonely", "10035": " landlord", "10036": " laminaat", "10037": " lend", "10038": " intoxic", "10039": " internationaal", "10040": " interested", "10041": " instellingen", "10042": " initiatieven", "10043": " industri\u00c3\u00able", "10044": " honderd", "10045": " hierover", "10046": " gouden", "10047": " franch", "10048": " ensured", "10049": " empt", "10050": " elektronische", "10051": " dishonest", "10052": " dieper", "10053": " dev", "10054": " demo", "10055": " durf", "10056": " dur", "10057": " courage", "10058": " conversations", "10059": " concurrentie", "10060": " concrete", "10061": " commerci\u00c3\u00able", "10062": " celebration", "10063": " carry", "10064": " butter", "10065": " bring", "10066": " bezorg", "10067": " besteed", "10068": " beslissingen", "10069": " belangen", "10070": " behandelingen", "10071": " behalve", "10072": " batterij", "10073": " banen", "10074": " avonds", "10075": " appreciating", "10076": " answer", "10077": " actually", "10078": " aangek", "10079": " Zaand", "10080": " Wal", "10081": " Vergeet", "10082": " Uw", "10083": " Uiteraard", "10084": " Sommige", "10085": " Roy", "10086": " Ron", "10087": " Ondanks", "10088": " NFT", "10089": " Micro", "10090": " Matt", "10091": " Itali\u00c3\u00ab", "10092": " Hart", "10093": " Fl", "10094": " COMP", "10095": " BT", "10096": " Anna", "10097": "zakken", "10098": "ximus", "10099": "wedden", "10100": "vey", "10101": "utt", "10102": "unn", "10103": "tering", "10104": "rog", "10105": "risten", "10106": "maals", "10107": "matiek", "10108": "liefhebbers", "10109": "los", "10110": "ila", "10111": "ieerde", "10112": "ih", "10113": "horende", "10114": "gegaan", "10115": "gebracht", "10116": "ffing", "10117": "foto", "10118": "erkt", "10119": "elbare", "10120": "egelijk", "10121": "child", "10122": "behe", "10123": "aved", "10124": "amin", "10125": "akk", "10126": "abouts", "10127": "ael", "10128": "Mon", "10129": "KB", "10130": "Gen", "10131": "Duur", "10132": "Com", "10133": "CC", "10134": "AAR", "10135": " wissel", "10136": " wijzigingen", "10137": " whereabouts", "10138": " weekly", "10139": " wear", "10140": " wol", "10141": " vriendelijk", "10142": " voorzichtig", "10143": " verhoogt", "10144": " verbouwing", "10145": " verrijk", "10146": " vandaan", "10147": " veter", "10148": " veer", "10149": " uitgangsp", "10150": " track", "10151": " tientallen", "10152": " thoroughly", "10153": " there", "10154": " tank", "10155": " staying", "10156": " stro", "10157": " schriftelijk", "10158": " schaduw", "10159": " scheid", "10160": " sen", "10161": " rudely", "10162": " restroom", "10163": " response", "10164": " regering", "10165": " regeling", "10166": " rot", "10167": " proeven", "10168": " plots", "10169": " opzet", "10170": " ondertussen", "10171": " omsch", "10172": " monument", "10173": " misle", "10174": " meisje", "10175": " manipulate", "10176": " letters", "10177": " lacking", "10178": " introduc", "10179": " inkomens", "10180": " honderden", "10181": " heu", "10182": " groeiende", "10183": " gewenst", "10184": " geselect", "10185": " gecombineerd", "10186": " flin", "10187": " fairly", "10188": " except", "10189": " elast", "10190": " donations", "10191": " distribut", "10192": " deelnemen", "10193": " contacten", "10194": " coer", "10195": " challenging", "10196": " cart", "10197": " bott", "10198": " blijf", "10199": " bemidd", "10200": " behoort", "10201": " baseball", "10202": " beer", "10203": " apps", "10204": " aparte", "10205": " alarm", "10206": " accounts", "10207": " aardapp", "10208": " aanvullende", "10209": " ate", "10210": " Whats", "10211": " Stad", "10212": " Spanje", "10213": " Sw", "10214": " Meestal", "10215": " Kn", "10216": " Kinderen", "10217": " IN", "10218": " Hieronder", "10219": " Fe", "10220": " Day", "10221": " Bu", "10222": " Android", "10223": " All", "10224": "zoals", "10225": "vanger", "10226": "termijn", "10227": "stop", "10228": "spect", "10229": "rede", "10230": "plein", "10231": "otes", "10232": "orse", "10233": "oph", "10234": "onische", "10235": "olarpunk", "10236": "oom", "10237": "macht", "10238": "lucht", "10239": "kennis", "10240": "inking", "10241": "illers", "10242": "iced", "10243": "harm", "10244": "haling", "10245": "gewen", "10246": "ertes", "10247": "epar", "10248": "eerst", "10249": "care", "10250": "berland", "10251": "bek", "10252": "atters", "10253": "asten", "10254": "arief", "10255": "akers", "10256": "aanbied", "10257": "Toen", "10258": "Tips", "10259": "Review", "10260": "Nieuwe", "10261": "EK", "10262": "Aut", "10263": "Amer", "10264": "03", "10265": "'ll", "10266": " zwangerschap", "10267": " wijzen", "10268": " watched", "10269": " warmtepomp", "10270": " vissen", "10271": " verdieping", "10272": " uiterst", "10273": " threatening", "10274": " talenten", "10275": " tatt", "10276": " stere", "10277": " spare", "10278": " slijt", "10279": " shirt", "10280": " scherpe", "10281": " schakelen", "10282": " risic", "10283": " rightful", "10284": " provoc", "10285": " plaf", "10286": " personages", "10287": " pic", "10288": " overwegen", "10289": " oplossen", "10290": " opgeslagen", "10291": " ondernem", "10292": " onderling", "10293": " nieuwsgier", "10294": " neck", "10295": " nergens", "10296": " meng", "10297": " medicijnen", "10298": " means", "10299": " lukt", "10300": " lezer", "10301": " lip", "10302": " keur", "10303": " kanten", "10304": " insists", "10305": " insurance", "10306": " horiz", "10307": " graduation", "10308": " gifted", "10309": " gewend", "10310": " gevoelige", "10311": " gelezen", "10312": " gedragen", "10313": " flinke", "10314": " exempl", "10315": " enthousias", "10316": " darm", "10317": " court", "10318": " contro", "10319": " compliments", "10320": " communiceren", "10321": " chron", "10322": " capaciteit", "10323": " boete", "10324": " block", "10325": " bijbe", "10326": " berekenen", "10327": " belanghebb", "10328": " brows", "10329": " auteurs", "10330": " anything", "10331": " alweer", "10332": " admired", "10333": " aware", "10334": " Veil", "10335": " Spaanse", "10336": " Russ", "10337": " Proximus", "10338": " Olymp", "10339": " Mensen", "10340": " Lou", "10341": " Kat", "10342": " Jul", "10343": " Hub", "10344": " Hoven", "10345": " Gucci", "10346": " Gent", "10347": " Frans", "10348": " Europees", "10349": " Da", "10350": " Crokinole", "10351": " Cr", "10352": "\u00e2\u0080\u00a6.", "10353": "\u00c3\u00a7", "10354": "vloe", "10355": "urinabol", "10356": "stijden", "10357": "selen", "10358": "rechte", "10359": "reem", "10360": "otiv", "10361": "netje", "10362": "meester", "10363": "mb", "10364": "lekt", "10365": "lotte", "10366": "kruid", "10367": "inks", "10368": "igant", "10369": "heim", "10370": "hulp", "10371": "hop", "10372": "gehele", "10373": "fum", "10374": "essie", "10375": "ellect", "10376": "buiten", "10377": "bbel", "10378": "akel", "10379": "aders", "10380": "acing", "10381": "Online", "10382": "Oosten", "10383": "Kom", "10384": "AB", "10385": "!'", "10386": " zoet", "10387": " zui", "10388": " zagen", "10389": " worst", "10390": " wees", "10391": " verzorgd", "10392": " verpakking", "10393": " verleng", "10394": " verdriet", "10395": " variant", "10396": " und", "10397": " uitdagende", "10398": " uitspraak", "10399": " therapeut", "10400": " temperaturen", "10401": " tekort", "10402": " tij", "10403": " stabiliteit", "10404": " sandw", "10405": " robber", "10406": " resident", "10407": " reporting", "10408": " remaining", "10409": " punched", "10410": " profile", "10411": " products", "10412": " prim", "10413": " persistent", "10414": " pasvorm", "10415": " path", "10416": " overige", "10417": " opgeleverd", "10418": " opstellen", "10419": " onderscheiden", "10420": " nauwkeurig", "10421": " modern", "10422": " melding", "10423": " magaz", "10424": " maatschappelijk", "10425": " ketting", "10426": " jammer", "10427": " hoofdstuk", "10428": " hierop", "10429": " groeit", "10430": " grandfather", "10431": " gezocht", "10432": " gewonnen", "10433": " gemaakte", "10434": " gay", "10435": " functioneren", "10436": " fietst", "10437": " faithful", "10438": " excessively", "10439": " escal", "10440": " ervaart", "10441": " environmental", "10442": " elektrolyten", "10443": " discipline", "10444": " disappointment", "10445": " disagreements", "10446": " depart", "10447": " deleted", "10448": " cre\u00c3\u00abert", "10449": " conserv", "10450": " completed", "10451": " cab", "10452": " books", "10453": " be\u00c3\u00afnvloeden", "10454": " between", "10455": " betalings", "10456": " beoordelingen", "10457": " bewerken", "10458": " attentively", "10459": " aside", "10460": " armen", "10461": " arguing", "10462": " arch", "10463": " analyseren", "10464": " among", "10465": " agre", "10466": " afmetingen", "10467": " aanbren", "10468": " Werk", "10469": " Timberland", "10470": " Tor", "10471": " Tijd", "10472": " Sn", "10473": " Rijk", "10474": " Port", "10475": " Master", "10476": " Leuven", "10477": " Live", "10478": " Kinder", "10479": " Just", "10480": " ICT", "10481": " Greef", "10482": " Goed", "10483": " Gate", "10484": " Fort", "10485": " Dem", "10486": " Billy", "10487": " Bart", "10488": " Act", "10489": " *", "10490": "\u00c2\u00b2", "10491": "uinen", "10492": "ualiteit", "10493": "sther", "10494": "sprogramma", "10495": "seizoen", "10496": "regel", "10497": "que", "10498": "prijzen", "10499": "post", "10500": "pap", "10501": "otherapie", "10502": "ordening", "10503": "oelen", "10504": "leer", "10505": "lip", "10506": "keuring", "10507": "iteert", "10508": "iteer", "10509": "iture", "10510": "inese", "10511": "ienst", "10512": "icle", "10513": "iar", "10514": "hing", "10515": "gener", "10516": "gy", "10517": "gor", "10518": "endeels", "10519": "card", "10520": "ateriaal", "10521": "atoren", "10522": "analyse", "10523": "agger", "10524": "aamd", "10525": "Walk", "10526": "US", "10527": "Per", "10528": "IC", "10529": "Gel", "10530": "Dus", "10531": "AM", "10532": "43", "10533": " zette", "10534": " wildlife", "10535": " werkdagen", "10536": " wearing", "10537": " wassen", "10538": " voorlop", "10539": " voorkomende", "10540": " verzeker", "10541": " vertra", "10542": " uitgerust", "10543": " truien", "10544": " trainer", "10545": " tijds", "10546": " tempted", "10547": " tens", "10548": " strakke", "10549": " sterkte", "10550": " starting", "10551": " samengesteld", "10552": " sauna", "10553": " sum", "10554": " sells", "10555": " reserv", "10556": " roepen", "10557": " roe", "10558": " rijdt", "10559": " ramen", "10560": " puzz", "10561": " produ", "10562": " praised", "10563": " platen", "10564": " parkeerplaats", "10565": " parked", "10566": " pandem", "10567": " packed", "10568": " piece", "10569": " operation", "10570": " oorzaak", "10571": " onderaan", "10572": " nursing", "10573": " nationale", "10574": " mineralen", "10575": " meten", "10576": " meegenomen", "10577": " masterclass", "10578": " logisch", "10579": " listening", "10580": " laadinfrastructuur", "10581": " lagen", "10582": " lad", "10583": " klus", "10584": " jongen", "10585": " intimacy", "10586": " insulted", "10587": " ingeschreven", "10588": " inner", "10589": " incon", "10590": " highway", "10591": " held", "10592": " grotendeels", "10593": " gewaardeerd", "10594": " getest", "10595": " gestuurd", "10596": " gallery", "10597": " freedom", "10598": " foss", "10599": " fisc", "10600": " encourage", "10601": " enc", "10602": " dynamische", "10603": " download", "10604": " doelstellingen", "10605": " doek", "10606": " dispos", "10607": " designated", "10608": " co\u00c3\u00b6rdin", "10609": " betrouwbaarheid", "10610": " betraying", "10611": " bure", "10612": " automatis", "10613": " attack", "10614": " algehele", "10615": " afbeeldingen", "10616": " administratie", "10617": " accepteren", "10618": " aanged", "10619": " Zeno", "10620": " Pas", "10621": " Naar", "10622": " NS", "10623": " Jason", "10624": " Groen", "10625": " Groningen", "10626": " Fred", "10627": " Even", "10628": " College", "10629": " CA", "10630": " Bijbel", "10631": " Arn", "10632": " Acc", "10633": " Ab", "10634": " 37", "10635": "yan", "10636": "verlies", "10637": "vernij", "10638": "uster", "10639": "urniture", "10640": "ulatie", "10641": "tot", "10642": "slaan", "10643": "ruchten", "10644": "resultaten", "10645": "problemen", "10646": "ouch", "10647": "orte", "10648": "opslag", "10649": "onderwijs", "10650": "ondsen", "10651": "markten", "10652": "iser", "10653": "ionship", "10654": "inken", "10655": "iepen", "10656": "hankelijke", "10657": "grat", "10658": "gemaakte", "10659": "ffici\u00c3\u00abnt", "10660": "ema", "10661": "cript", "10662": "ausanne", "10663": "arken", "10664": "ariteit", "10665": "arily", "10666": "apper", "10667": "akeld", "10668": "aagt", "10669": "VER", "10670": "Ondanks", "10671": "Indien", "10672": "Co", "10673": " wegens", "10674": " waterd", "10675": " volt", "10676": " voer", "10677": " vlieg", "10678": " visible", "10679": " vervaard", "10680": " verschijnt", "10681": " verricht", "10682": " verloop", "10683": " vakantiepark", "10684": " uitzondering", "10685": " troubl", "10686": " toetsen", "10687": " theorie", "10688": " syn", "10689": " surger", "10690": " stuks", "10691": " studying", "10692": " storten", "10693": " speelgoed", "10694": " smoke", "10695": " scheduled", "10696": " swe", "10697": " reiniging", "10698": " prints", "10699": " potentieel", "10700": " podcast", "10701": " plekje", "10702": " piano", "10703": " oranje", "10704": " oorsprong", "10705": " ongeluk", "10706": " numer", "10707": " nep", "10708": " meticul", "10709": " material", "10710": " manage", "10711": " makelaar", "10712": " maalt", "10713": " mes", "10714": " leverancier", "10715": " leuker", "10716": " kenmerk", "10717": " koper", "10718": " judge", "10719": " invading", "10720": " integreren", "10721": " inrichting", "10722": " hygiene", "10723": " horlog", "10724": " homeopath", "10725": " generatie", "10726": " god", "10727": " gisteren", "10728": " fraudul", "10729": " fantasie", "10730": " expenses", "10731": " excell", "10732": " exagger", "10733": " eveneens", "10734": " enthousiasme", "10735": " elektrisch", "10736": " dol", "10737": " dishes", "10738": " diagnosis", "10739": " deg", "10740": " deden", "10741": " dim", "10742": " corona", "10743": " copy", "10744": " console", "10745": " confronting", "10746": " chemical", "10747": " bezwaar", "10748": " beschikbaarheid", "10749": " beroeps", "10750": " beperkingen", "10751": " beleids", "10752": " bedienen", "10753": " bou", "10754": " bakken", "10755": " applicant", "10756": " afgerond", "10757": " admir", "10758": " aardig", "10759": " aanzienlijke", "10760": " aanbrengen", "10761": " aanvang", "10762": " aangev", "10763": " WhatsApp", "10764": " Thomas", "10765": " Out", "10766": " Heil", "10767": " Friday", "10768": " Fer", "10769": " Du", "10770": " Digit", "10771": " Buiten", "10772": " Boeken", "10773": " Ann", "10774": " 2000", "10775": " 250", "10776": " 120", "10777": "wijzigd", "10778": "wijding", "10779": "uspecting", "10780": "uister", "10781": "ubile", "10782": "tijdig", "10783": "stemming", "10784": "stell", "10785": "ringen", "10786": "rente", "10787": "rem", "10788": "poort", "10789": "ora", "10790": "oost", "10791": "neden", "10792": "malig", "10793": "mon", "10794": "mans", "10795": "kleur", "10796": "izigers", "10797": "ituut", "10798": "inkt", "10799": "ika", "10800": "ijlen", "10801": "iezingen", "10802": "iefde", "10803": "iff", "10804": "genoot", "10805": "fre", "10806": "eschool", "10807": "erse", "10808": "dates", "10809": "bronnen", "10810": "braak", "10811": "brand", "10812": "athol", "10813": "antel", "10814": "anza", "10815": "anner", "10816": "anie", "10817": "alty", "10818": "account", "10819": "Voordat", "10820": "Vandaag", "10821": "OM", "10822": "Kle", "10823": "IO", "10824": "Ger", "10825": "75", "10826": "32", "10827": "22", "10828": "):", "10829": " \u00e2\u0081\u00a2", "10830": " \u00e2\u0080\u008c", "10831": " zons", "10832": " winsten", "10833": " what", "10834": " welkomst", "10835": " voorbereid", "10836": " voorstel", "10837": " verspreid", "10838": " veelzijdige", "10839": " vakmanschap", "10840": " unsuspecting", "10841": " twintig", "10842": " topic", "10843": " toename", "10844": " things", "10845": " texted", "10846": " telefonisch", "10847": " telkens", "10848": " tablet", "10849": " standing", "10850": " stopt", "10851": " snow", "10852": " slachtoff", "10853": " skips", "10854": " several", "10855": " sensitive", "10856": " ruin", "10857": " preference", "10858": " playfully", "10859": " plaatsing", "10860": " plag", "10861": " percentage", "10862": " payment", "10863": " passing", "10864": " papieren", "10865": " pijl", "10866": " overd", "10867": " oudste", "10868": " opgesteld", "10869": " onzekerheid", "10870": " ontvangst", "10871": " onget", "10872": " offertes", "10873": " ofwel", "10874": " normen", "10875": " noodzaak", "10876": " neus", "10877": " meticulously", "10878": " metalen", "10879": " leukste", "10880": " lesson", "10881": " langdurige", "10882": " lippen", "10883": " kwestie", "10884": " kwaliteits", "10885": " kandidaat", "10886": " kaartje", "10887": " kol", "10888": " kaas", "10889": " interactie", "10890": " individueel", "10891": " hurting", "10892": " heden", "10893": " hed", "10894": " hiking", "10895": " hike", "10896": " hide", "10897": " gekopp", "10898": " gedachte", "10899": " female", "10900": " families", "10901": " furniture", "10902": " fence", "10903": " fashion", "10904": " events", "10905": " ecos", "10906": " doorgaans", "10907": " dollar", "10908": " docent", "10909": " demanding", "10910": " decisions", "10911": " decen", "10912": " dichter", "10913": " criter", "10914": " contributions", "10915": " casinos", "10916": " careg", "10917": " calm", "10918": " cann", "10919": " bijbehorende", "10920": " balanced", "10921": " avoided", "10922": " artist", "10923": " arbeidsmarkt", "10924": " appartementen", "10925": " afgesproken", "10926": " adviseur", "10927": " added", "10928": " ailing", "10929": " ahead", "10930": " Zie", "10931": " Wild", "10932": " Volharding", "10933": " Vin", "10934": " Tevens", "10935": " Stud", "10936": " Philips", "10937": " Post", "10938": " Nic", "10939": " Mich", "10940": " Koninkrijk", "10941": " Keu", "10942": " Hong", "10943": " Hand", "10944": " Greg", "10945": " Ged", "10946": " Begin", "10947": " Bouw", "10948": " Amerika", "10949": " 38", "10950": "\n\n", "10951": "\u00c3\u00a9t", "10952": "zaamheden", "10953": "woning", "10954": "weddenschappen", "10955": "waren", "10956": "war", "10957": "vervoer", "10958": "vels", "10959": "urse", "10960": "urch", "10961": "teit", "10962": "top", "10963": "specialist", "10964": "sprekend", "10965": "scherm", "10966": "roepen", "10967": "qual", "10968": "ppen", "10969": "ormen", "10970": "opers", "10971": "oorte", "10972": "oops", "10973": "onderhoud", "10974": "leraar", "10975": "ikes", "10976": "ieter", "10977": "icap", "10978": "icen", "10979": "host", "10980": "hoofd", "10981": "hebber", "10982": "hy", "10983": "gratul", "10984": "grote", "10985": "genoten", "10986": "eman", "10987": "deling", "10988": "certific", "10989": "burst", "10990": "bescherming", "10991": "besl", "10992": "ansport", "10993": "ancing", "10994": "anceerd", "10995": "ago", "10996": "aderingen", "10997": "adijs", "10998": "aalf", "10999": "Wilt", "11000": "VA", "11001": "Lees", "11002": "IA", "11003": "Erv", "11004": "CHT", "11005": "77", "11006": "-)", "11007": " zichtbaarheid", "11008": " zil", "11009": " wisten", "11010": " vulnerability",
[...]
